unsigned char D__trill_training_output__gesture_model_tflite[] = {
  0x1c, 0x00, 0x00, 0x00, 0x54, 0x46, 0x4c, 0x33, 0x14, 0x00, 0x20, 0x00,
  0x04, 0x00, 0x08, 0x00, 0x0c, 0x00, 0x10, 0x00, 0x14, 0x00, 0x00, 0x00,
  0x18, 0x00, 0x1c, 0x00, 0x14, 0x00, 0x00, 0x00, 0x03, 0x00, 0x00, 0x00,
  0x18, 0x00, 0x00, 0x00, 0x2c, 0x00, 0x00, 0x00, 0xe4, 0x00, 0x00, 0x00,
  0x2c, 0x00, 0x00, 0x00, 0x8c, 0x00, 0x00, 0x00, 0x84, 0x00, 0x00, 0x00,
  0x05, 0x00, 0x00, 0x00, 0x5c, 0x08, 0x00, 0x00, 0x78, 0x07, 0x00, 0x00,
  0xc8, 0x03, 0x00, 0x00, 0x04, 0x03, 0x00, 0x00, 0xc8, 0x01, 0x00, 0x00,
  0x01, 0x00, 0x00, 0x00, 0xdc, 0x00, 0x00, 0x00, 0x17, 0x00, 0x00, 0x00,
  0x34, 0x87, 0x00, 0x00, 0x30, 0x87, 0x00, 0x00, 0x28, 0x86, 0x00, 0x00,
  0x74, 0x85, 0x00, 0x00, 0xcc, 0x84, 0x00, 0x00, 0x24, 0x84, 0x00, 0x00,
  0xa4, 0x83, 0x00, 0x00, 0x38, 0x83, 0x00, 0x00, 0xe8, 0x42, 0x00, 0x00,
  0x14, 0x41, 0x00, 0x00, 0x98, 0x3f, 0x00, 0x00, 0x3c, 0x2d, 0x00, 0x00,
  0xe0, 0x08, 0x00, 0x00, 0x00, 0x87, 0x00, 0x00, 0xfc, 0x86, 0x00, 0x00,
  0xf8, 0x86, 0x00, 0x00, 0xf4, 0x86, 0x00, 0x00, 0xf0, 0x86, 0x00, 0x00,
  0xec, 0x86, 0x00, 0x00, 0xe8, 0x86, 0x00, 0x00, 0xe4, 0x86, 0x00, 0x00,
  0xe0, 0x86, 0x00, 0x00, 0x3c, 0x00, 0x00, 0x00, 0x00, 0x00, 0x00, 0x00,
  0x01, 0x00, 0x00, 0x00, 0x0c, 0x00, 0x00, 0x00, 0x08, 0x00, 0x0c, 0x00,
  0x04, 0x00, 0x08, 0x00, 0x08, 0x00, 0x00, 0x00, 0x08, 0x00, 0x00, 0x00,
  0x16, 0x00, 0x00, 0x00, 0x13, 0x00, 0x00, 0x00, 0x6d, 0x69, 0x6e, 0x5f,
  0x72, 0x75, 0x6e, 0x74, 0x69, 0x6d, 0x65, 0x5f, 0x76, 0x65, 0x72, 0x73,
  0x69, 0x6f, 0x6e, 0x00, 0x6a, 0x7a, 0xff, 0xff, 0x04, 0x00, 0x00, 0x00,
  0x10, 0x00, 0x00, 0x00, 0x31, 0x2e, 0x35, 0x2e, 0x30, 0x00, 0x00, 0x00,
  0x00, 0x00, 0x00, 0x00, 0x00, 0x00, 0x00, 0x00, 0x0f, 0x00, 0x00, 0x00,
  0x4d, 0x4c, 0x49, 0x52, 0x20, 0x43, 0x6f, 0x6e, 0x76, 0x65, 0x72, 0x74,
  0x65, 0x64, 0x2e, 0x00, 0x00, 0x00, 0x0e, 0x00, 0x18, 0x00, 0x04, 0x00,
  0x08, 0x00, 0x0c, 0x00, 0x10, 0x00, 0x14, 0x00, 0x0e, 0x00, 0x00, 0x00,
  0x14, 0x00, 0x00, 0x00, 0x68, 0x00, 0x00, 0x00, 0x6c, 0x00, 0x00, 0x00,
  0x70, 0x00, 0x00, 0x00, 0x94, 0x00, 0x00, 0x00, 0x15, 0x00, 0x00, 0x00,
  0xe8, 0x85, 0x00, 0x00, 0x78, 0x85, 0x00, 0x00, 0xd4, 0x84, 0x00, 0x00,
  0x2c, 0x84, 0x00, 0x00, 0x84, 0x83, 0x00, 0x00, 0xdc, 0x82, 0x00, 0x00,
  0x70, 0x82, 0x00, 0x00, 0x08, 0x82, 0x00, 0x00, 0xb4, 0x41, 0x00, 0x00,
  0xd8, 0x3f, 0x00, 0x00, 0x5c, 0x3e, 0x00, 0x00, 0x00, 0x2c, 0x00, 0x00,
  0x2c, 0x07, 0x00, 0x00, 0x48, 0x06, 0x00, 0x00, 0xec, 0x04, 0x00, 0x00,
  0xe0, 0x03, 0x00, 0x00, 0x34, 0x03, 0x00, 0x00, 0x8c, 0x02, 0x00, 0x00,
  0xc8, 0x01, 0x00, 0x00, 0x04, 0x01, 0x00, 0x00, 0x88, 0x00, 0x00, 0x00,
  0x01, 0x00, 0x00, 0x00, 0x00, 0x00, 0x00, 0x00, 0x01, 0x00, 0x00, 0x00,
  0x14, 0x00, 0x00, 0x00, 0x09, 0x00, 0x00, 0x00, 0x90, 0x06, 0x00, 0x00,
  0xb0, 0x05, 0x00, 0x00, 0x78, 0x04, 0x00, 0x00, 0x6c, 0x03, 0x00, 0x00,
  0xbc, 0x02, 0x00, 0x00, 0x20, 0x02, 0x00, 0x00, 0x40, 0x01, 0x00, 0x00,
  0x98, 0x00, 0x00, 0x00, 0x10, 0x00, 0x00, 0x00, 0x04, 0x00, 0x00, 0x00,
  0x6d, 0x61, 0x69, 0x6e, 0x00, 0x00, 0x00, 0x00, 0x72, 0xfd, 0xff, 0xff,
  0x00, 0x00, 0x00, 0x09, 0x04, 0x00, 0x00, 0x00, 0x1c, 0x00, 0x00, 0x00,
  0x10, 0x00, 0x00, 0x00, 0x04, 0x00, 0x00, 0x00, 0x76, 0x7b, 0xff, 0xff,
  0x00, 0x00, 0x80, 0x3f, 0x01, 0x00, 0x00, 0x00, 0x14, 0x00, 0x00, 0x00,
  0x01, 0x00, 0x00, 0x00, 0x13, 0x00, 0x00, 0x00, 0x88, 0xf9, 0xff, 0xff,
  0x19, 0x00, 0x00, 0x00, 0x00, 0x00, 0x00, 0x19, 0x01, 0x00, 0x00, 0x00,
  0x04, 0x7b, 0xff, 0xff, 0x14, 0x00, 0x00, 0x00, 0x15, 0x00, 0x00, 0x00,
  0x24, 0x00, 0x00, 0x00, 0x30, 0x00, 0x00, 0x00, 0x10, 0x00, 0x00, 0x00,
  0x02, 0x00, 0x00, 0x00, 0x01, 0x00, 0x00, 0x00, 0x06, 0x00, 0x00, 0x00,
  0x02, 0x00, 0x00, 0x00, 0xff, 0xff, 0xff, 0xff, 0x06, 0x00, 0x00, 0x00,
  0x08, 0x00, 0x00, 0x00, 0x49, 0x64, 0x65, 0x6e, 0x74, 0x69, 0x74, 0x79,
  0x00, 0x00, 0x00, 0x00, 0xd8, 0x7a, 0xff, 0xff, 0xf6, 0xfd, 0xff, 0xff,
  0x00, 0x00, 0x00, 0x08, 0x03, 0x00, 0x00, 0x00, 0x18, 0x00, 0x00, 0x00,
  0x0c, 0x00, 0x00, 0x00, 0x04, 0x00, 0x00, 0x00, 0xf4, 0x7a, 0xff, 0xff,
  0x01, 0x00, 0x00, 0x00, 0x13, 0x00, 0x00, 0x00, 0x03, 0x00, 0x00, 0x00,
  0x12, 0x00, 0x00, 0x00, 0x08, 0x00, 0x00, 0x00, 0x05, 0x00, 0x00, 0x00,
  0x7c, 0x7b, 0xff, 0xff, 0x14, 0x00, 0x00, 0x00, 0x14, 0x00, 0x00, 0x00,
  0x24, 0x00, 0x00, 0x00, 0x5c, 0x00, 0x00, 0x00, 0x10, 0x00, 0x00, 0x00,
  0x02, 0x00, 0x00, 0x00, 0x01, 0x00, 0x00, 0x00, 0x06, 0x00, 0x00, 0x00,
  0x02, 0x00, 0x00, 0x00, 0xff, 0xff, 0xff, 0xff, 0x06, 0x00, 0x00, 0x00,
  0x34, 0x00, 0x00, 0x00, 0x73, 0x65, 0x71, 0x75, 0x65, 0x6e, 0x74, 0x69,
  0x61, 0x6c, 0x2f, 0x64, 0x65, 0x6e, 0x73, 0x65, 0x5f, 0x31, 0x2f, 0x4d,
  0x61, 0x74, 0x4d, 0x75, 0x6c, 0x3b, 0x73, 0x65, 0x71, 0x75, 0x65, 0x6e,
  0x74, 0x69, 0x61, 0x6c, 0x2f, 0x64, 0x65, 0x6e, 0x73, 0x65, 0x5f, 0x31,
  0x2f, 0x42, 0x69, 0x61, 0x73, 0x41, 0x64, 0x64, 0x00, 0x00, 0x00, 0x00,
  0x7c, 0x7b, 0xff, 0xff, 0xb2, 0xfb, 0xff, 0xff, 0x00, 0x00, 0x00, 0x08,
  0x03, 0x00, 0x00, 0x00, 0x24, 0x00, 0x00, 0x00, 0x18, 0x00, 0x00, 0x00,
  0x0c, 0x00, 0x00, 0x00, 0x00, 0x00, 0x06, 0x00, 0x08, 0x00, 0x07, 0x00,
  0x06, 0x00, 0x00, 0x00, 0x00, 0x00, 0x00, 0x01, 0x01, 0x00, 0x00, 0x00,
  0x12, 0x00, 0x00, 0x00, 0x03, 0x00, 0x00, 0x00, 0x11, 0x00, 0x00, 0x00,
  0x07, 0x00, 0x00, 0x00, 0x04, 0x00, 0x00, 0x00, 0xc0, 0xfa, 0xff, 0xff,
  0x09, 0x00, 0x00, 0x00, 0x00, 0x00, 0x00, 0x09, 0x01, 0x00, 0x00, 0x00,
  0x3c, 0x7c, 0xff, 0xff, 0x14, 0x00, 0x00, 0x00, 0x13, 0x00, 0x00, 0x00,
  0x24, 0x00, 0x00, 0x00, 0x6c, 0x00, 0x00, 0x00, 0x10, 0x00, 0x00, 0x00,
  0x02, 0x00, 0x00, 0x00, 0x01, 0x00, 0x00, 0x00, 0x10, 0x00, 0x00, 0x00,
  0x02, 0x00, 0x00, 0x00, 0xff, 0xff, 0xff, 0xff, 0x10, 0x00, 0x00, 0x00,
  0x46, 0x00, 0x00, 0x00, 0x73, 0x65, 0x71, 0x75, 0x65, 0x6e, 0x74, 0x69,
  0x61, 0x6c, 0x2f, 0x64, 0x65, 0x6e, 0x73, 0x65, 0x2f, 0x4d, 0x61, 0x74,
  0x4d, 0x75, 0x6c, 0x3b, 0x73, 0x65, 0x71, 0x75, 0x65, 0x6e, 0x74, 0x69,
  0x61, 0x6c, 0x2f, 0x64, 0x65, 0x6e, 0x73, 0x65, 0x2f, 0x52, 0x65, 0x6c,
  0x75, 0x3b, 0x73, 0x65, 0x71, 0x75, 0x65, 0x6e, 0x74, 0x69, 0x61, 0x6c,
  0x2f, 0x64, 0x65, 0x6e, 0x73, 0x65, 0x2f, 0x42, 0x69, 0x61, 0x73, 0x41,
  0x64, 0x64, 0x00, 0x00, 0x5c, 0x7d, 0xff, 0xff, 0x00, 0x00, 0x0a, 0x00,
  0x10, 0x00, 0x04, 0x00, 0x08, 0x00, 0x0c, 0x00, 0x0a, 0x00, 0x00, 0x00,
  0x02, 0x00, 0x00, 0x00, 0x10, 0x00, 0x00, 0x00, 0x04, 0x00, 0x00, 0x00,
  0x01, 0x00, 0x00, 0x00, 0x11, 0x00, 0x00, 0x00, 0x02, 0x00, 0x00, 0x00,
  0x10, 0x00, 0x00, 0x00, 0x06, 0x00, 0x00, 0x00, 0x80, 0xfb, 0xff, 0xff,
  0x16, 0x00, 0x00, 0x00, 0x00, 0x00, 0x00, 0x16, 0x01, 0x00, 0x00, 0x00,
  0xfc, 0x7c, 0xff, 0xff, 0x14, 0x00, 0x00, 0x00, 0x12, 0x00, 0x00, 0x00,
  0x24, 0x00, 0x00, 0x00, 0x40, 0x00, 0x00, 0x00, 0x10, 0x00, 0x00, 0x00,
  0x02, 0x00, 0x00, 0x00, 0x01, 0x00, 0x00, 0x00, 0x00, 0x01, 0x00, 0x00,
  0x02, 0x00, 0x00, 0x00, 0xff, 0xff, 0xff, 0xff, 0x00, 0x01, 0x00, 0x00,
  0x1a, 0x00, 0x00, 0x00, 0x73, 0x65, 0x71, 0x75, 0x65, 0x6e, 0x74, 0x69,
  0x61, 0x6c, 0x2f, 0x66, 0x6c, 0x61, 0x74, 0x74, 0x65, 0x6e, 0x2f, 0x52,
  0x65, 0x73, 0x68, 0x61, 0x70, 0x65, 0x00, 0x00, 0xf0, 0x7d, 0xff, 0xff,
  0x00, 0x00, 0x0e, 0x00, 0x18, 0x00, 0x08, 0x00, 0x0c, 0x00, 0x10, 0x00,
  0x07, 0x00, 0x14, 0x00, 0x0e, 0x00, 0x00, 0x00, 0x00, 0x00, 0x00, 0x05,
  0x01, 0x00, 0x00, 0x00, 0x2c, 0x00, 0x00, 0x00, 0x20, 0x00, 0x00, 0x00,
  0x04, 0x00, 0x00, 0x00, 0x16, 0xfd, 0xff, 0xff, 0x02, 0x00, 0x00, 0x00,
  0x02, 0x00, 0x00, 0x00, 0x02, 0x00, 0x00, 0x00, 0x02, 0x00, 0x00, 0x00,
  0x00, 0x00, 0x00, 0x01, 0x01, 0x00, 0x00, 0x00, 0x10, 0x00, 0x00, 0x00,
  0x01, 0x00, 0x00, 0x00, 0x0f, 0x00, 0x00, 0x00, 0xa0, 0x7d, 0xff, 0xff,
  0x14, 0x00, 0x00, 0x00, 0x11, 0x00, 0x00, 0x00, 0x34, 0x00, 0x00, 0x00,
  0x58, 0x00, 0x00, 0x00, 0x18, 0x00, 0x00, 0x00, 0x04, 0x00, 0x00, 0x00,
  0x01, 0x00, 0x00, 0x00, 0x04, 0x00, 0x00, 0x00, 0x04, 0x00, 0x00, 0x00,
  0x10, 0x00, 0x00, 0x00, 0x04, 0x00, 0x00, 0x00, 0xff, 0xff, 0xff, 0xff,
  0x04, 0x00, 0x00, 0x00, 0x04, 0x00, 0x00, 0x00, 0x10, 0x00, 0x00, 0x00,
  0x22, 0x00, 0x00, 0x00, 0x73, 0x65, 0x71, 0x75, 0x65, 0x6e, 0x74, 0x69,
  0x61, 0x6c, 0x2f, 0x6d, 0x61, 0x78, 0x5f, 0x70, 0x6f, 0x6f, 0x6c, 0x69,
  0x6e, 0x67, 0x32, 0x64, 0x5f, 0x31, 0x2f, 0x4d, 0x61, 0x78, 0x50, 0x6f,
  0x6f, 0x6c, 0x00, 0x00, 0x9c, 0x7d, 0xff, 0xff, 0xf6, 0xfc, 0xff, 0xff,
  0x00, 0x00, 0x00, 0x01, 0x24, 0x00, 0x00, 0x00, 0x18, 0x00, 0x00, 0x00,
  0x04, 0x00, 0x00, 0x00, 0xe8, 0xfc, 0xff, 0xff, 0x01, 0x00, 0x00, 0x00,
  0x01, 0x00, 0x00, 0x00, 0x00, 0x00, 0x01, 0x01, 0x01, 0x00, 0x00, 0x00,
  0x0f, 0x00, 0x00, 0x00, 0x03, 0x00, 0x00, 0x00, 0x0e, 0x00, 0x00, 0x00,
  0x0b, 0x00, 0x00, 0x00, 0x03, 0x00, 0x00, 0x00, 0x48, 0x7e, 0xff, 0xff,
  0x14, 0x00, 0x00, 0x00, 0x10, 0x00, 0x00, 0x00, 0x34, 0x00, 0x00, 0x00,
  0xb8, 0x00, 0x00, 0x00, 0x18, 0x00, 0x00, 0x00, 0x04, 0x00, 0x00, 0x00,
  0x01, 0x00, 0x00, 0x00, 0x09, 0x00, 0x00, 0x00, 0x09, 0x00, 0x00, 0x00,
  0x10, 0x00, 0x00, 0x00, 0x04, 0x00, 0x00, 0x00, 0xff, 0xff, 0xff, 0xff,
  0x09, 0x00, 0x00, 0x00, 0x09, 0x00, 0x00, 0x00, 0x10, 0x00, 0x00, 0x00,
  0x83, 0x00, 0x00, 0x00, 0x73, 0x65, 0x71, 0x75, 0x65, 0x6e, 0x74, 0x69,
  0x61, 0x6c, 0x2f, 0x63, 0x6f, 0x6e, 0x76, 0x32, 0x64, 0x5f, 0x32, 0x2f,
  0x52, 0x65, 0x6c, 0x75, 0x3b, 0x73, 0x65, 0x71, 0x75, 0x65, 0x6e, 0x74,
  0x69, 0x61, 0x6c, 0x2f, 0x63, 0x6f, 0x6e, 0x76, 0x32, 0x64, 0x5f, 0x32,
  0x2f, 0x42, 0x69, 0x61, 0x73, 0x41, 0x64, 0x64, 0x3b, 0x73, 0x65, 0x71,
  0x75, 0x65, 0x6e, 0x74, 0x69, 0x61, 0x6c, 0x2f, 0x63, 0x6f, 0x6e, 0x76,
  0x32, 0x64, 0x5f, 0x32, 0x2f, 0x43, 0x6f, 0x6e, 0x76, 0x32, 0x44, 0x3b,
  0x73, 0x65, 0x71, 0x75, 0x65, 0x6e, 0x74, 0x69, 0x61, 0x6c, 0x2f, 0x63,
  0x6f, 0x6e, 0x76, 0x32, 0x64, 0x5f, 0x32, 0x2f, 0x42, 0x69, 0x61, 0x73,
  0x41, 0x64, 0x64, 0x2f, 0x52, 0x65, 0x61, 0x64, 0x56, 0x61, 0x72, 0x69,
  0x61, 0x62, 0x6c, 0x65, 0x4f, 0x70, 0x2f, 0x72, 0x65, 0x73, 0x6f, 0x75,
  0x72, 0x63, 0x65, 0x00, 0xa4, 0x7e, 0xff, 0xff, 0xfe, 0xfd, 0xff, 0xff,
  0x00, 0x00, 0x00, 0x01, 0x24, 0x00, 0x00, 0x00, 0x18, 0x00, 0x00, 0x00,
  0x04, 0x00, 0x00, 0x00, 0xf0, 0xfd, 0xff, 0xff, 0x01, 0x00, 0x00, 0x00,
  0x01, 0x00, 0x00, 0x00, 0x00, 0x00, 0x01, 0x01, 0x01, 0x00, 0x00, 0x00,
  0x0e, 0x00, 0x00, 0x00, 0x03, 0x00, 0x00, 0x00, 0x0d, 0x00, 0x00, 0x00,
  0x0a, 0x00, 0x00, 0x00, 0x02, 0x00, 0x00, 0x00, 0x50, 0x7f, 0xff, 0xff,
  0x14, 0x00, 0x00, 0x00, 0x0f, 0x00, 0x00, 0x00, 0x34, 0x00, 0x00, 0x00,
  0xd4, 0x00, 0x00, 0x00, 0x18, 0x00, 0x00, 0x00, 0x04, 0x00, 0x00, 0x00,
  0x01, 0x00, 0x00, 0x00, 0x0b, 0x00, 0x00, 0x00, 0x0b, 0x00, 0x00, 0x00,
  0x10, 0x00, 0x00, 0x00, 0x04, 0x00, 0x00, 0x00, 0xff, 0xff, 0xff, 0xff,
  0x0b, 0x00, 0x00, 0x00, 0x0b, 0x00, 0x00, 0x00, 0x10, 0x00, 0x00, 0x00,
  0x9e, 0x00, 0x00, 0x00, 0x73, 0x65, 0x71, 0x75, 0x65, 0x6e, 0x74, 0x69,
  0x61, 0x6c, 0x2f, 0x63, 0x6f, 0x6e, 0x76, 0x32, 0x64, 0x5f, 0x31, 0x2f,
  0x52, 0x65, 0x6c, 0x75, 0x3b, 0x73, 0x65, 0x71, 0x75, 0x65, 0x6e, 0x74,
  0x69, 0x61, 0x6c, 0x2f, 0x63, 0x6f, 0x6e, 0x76, 0x32, 0x64, 0x5f, 0x31,
  0x2f, 0x42, 0x69, 0x61, 0x73, 0x41, 0x64, 0x64, 0x3b, 0x73, 0x65, 0x71,
  0x75, 0x65, 0x6e, 0x74, 0x69, 0x61, 0x6c, 0x2f, 0x63, 0x6f, 0x6e, 0x76,
  0x32, 0x64, 0x5f, 0x32, 0x2f, 0x43, 0x6f, 0x6e, 0x76, 0x32, 0x44, 0x3b,
  0x73, 0x65, 0x71, 0x75, 0x65, 0x6e, 0x74, 0x69, 0x61, 0x6c, 0x2f, 0x63,
  0x6f, 0x6e, 0x76, 0x32, 0x64, 0x5f, 0x31, 0x2f, 0x43, 0x6f, 0x6e, 0x76,
  0x32, 0x44, 0x3b, 0x73, 0x65, 0x71, 0x75, 0x65, 0x6e, 0x74, 0x69, 0x61,
  0x6c, 0x2f, 0x63, 0x6f, 0x6e, 0x76, 0x32, 0x64, 0x5f, 0x31, 0x2f, 0x42,
  0x69, 0x61, 0x73, 0x41, 0x64, 0x64, 0x2f, 0x52, 0x65, 0x61, 0x64, 0x56,
  0x61, 0x72, 0x69, 0x61, 0x62, 0x6c, 0x65, 0x4f, 0x70, 0x2f, 0x72, 0x65,
  0x73, 0x6f, 0x75, 0x72, 0x63, 0x65, 0x00, 0x00, 0xd8, 0x80, 0xff, 0xff,
  0x00, 0x00, 0x0e, 0x00, 0x1a, 0x00, 0x08, 0x00, 0x0c, 0x00, 0x10, 0x00,
  0x07, 0x00, 0x14, 0x00, 0x0e, 0x00, 0x00, 0x00, 0x00, 0x00, 0x00, 0x05,
  0x01, 0x00, 0x00, 0x00, 0x3c, 0x00, 0x00, 0x00, 0x30, 0x00, 0x00, 0x00,
  0x14, 0x00, 0x00, 0x00, 0x00, 0x00, 0x0e, 0x00, 0x18, 0x00, 0x17, 0x00,
  0x10, 0x00, 0x0c, 0x00, 0x08, 0x00, 0x04, 0x00, 0x0e, 0x00, 0x00, 0x00,
  0x02, 0x00, 0x00, 0x00, 0x02, 0x00, 0x00, 0x00, 0x02, 0x00, 0x00, 0x00,
  0x02, 0x00, 0x00, 0x00, 0x00, 0x00, 0x00, 0x01, 0x01, 0x00, 0x00, 0x00,
  0x0d, 0x00, 0x00, 0x00, 0x01, 0x00, 0x00, 0x00, 0x0c, 0x00, 0x00, 0x00,
  0x2c, 0xff, 0xff, 0xff, 0x11, 0x00, 0x00, 0x00, 0x00, 0x00, 0x00, 0x11,
  0x01, 0x00, 0x00, 0x00, 0xa8, 0x80, 0xff, 0xff, 0x14, 0x00, 0x00, 0x00,
  0x0e, 0x00, 0x00, 0x00, 0x34, 0x00, 0x00, 0x00, 0x58, 0x00, 0x00, 0x00,
  0x18, 0x00, 0x00, 0x00, 0x04, 0x00, 0x00, 0x00, 0x01, 0x00, 0x00, 0x00,
  0x0d, 0x00, 0x00, 0x00, 0x0d, 0x00, 0x00, 0x00, 0x08, 0x00, 0x00, 0x00,
  0x04, 0x00, 0x00, 0x00, 0xff, 0xff, 0xff, 0xff, 0x0d, 0x00, 0x00, 0x00,
  0x0d, 0x00, 0x00, 0x00, 0x08, 0x00, 0x00, 0x00, 0x20, 0x00, 0x00, 0x00,
  0x73, 0x65, 0x71, 0x75, 0x65, 0x6e, 0x74, 0x69, 0x61, 0x6c, 0x2f, 0x6d,
  0x61, 0x78, 0x5f, 0x70, 0x6f, 0x6f, 0x6c, 0x69, 0x6e, 0x67, 0x32, 0x64,
  0x2f, 0x4d, 0x61, 0x78, 0x50, 0x6f, 0x6f, 0x6c, 0x00, 0x00, 0x00, 0x00,
  0xb4, 0x81, 0xff, 0xff, 0x00, 0x00, 0x0e, 0x00, 0x14, 0x00, 0x00, 0x00,
  0x08, 0x00, 0x0c, 0x00, 0x07, 0x00, 0x10, 0x00, 0x0e, 0x00, 0x00, 0x00,
  0x00, 0x00, 0x00, 0x01, 0x30, 0x00, 0x00, 0x00, 0x24, 0x00, 0x00, 0x00,
  0x10, 0x00, 0x00, 0x00, 0x0c, 0x00, 0x10, 0x00, 0x0e, 0x00, 0x04, 0x00,
  0x08, 0x00, 0x0f, 0x00, 0x0c, 0x00, 0x00, 0x00, 0x01, 0x00, 0x00, 0x00,
  0x01, 0x00, 0x00, 0x00, 0x00, 0x00, 0x01, 0x01, 0x01, 0x00, 0x00, 0x00,
  0x0c, 0x00, 0x00, 0x00, 0x03, 0x00, 0x00, 0x00, 0x00, 0x00, 0x00, 0x00,
  0x09, 0x00, 0x00, 0x00, 0x01, 0x00, 0x00, 0x00, 0x0c, 0x00, 0x10, 0x00,
  0x0b, 0x00, 0x00, 0x00, 0x0c, 0x00, 0x04, 0x00, 0x0c, 0x00, 0x00, 0x00,
  0x03, 0x00, 0x00, 0x00, 0x00, 0x00, 0x00, 0x03, 0x01, 0x00, 0x00, 0x00,
  0x88, 0x81, 0xff, 0xff, 0x14, 0x00, 0x00, 0x00, 0x0d, 0x00, 0x00, 0x00,
  0x34, 0x00, 0x00, 0x00, 0xb0, 0x00, 0x00, 0x00, 0x18, 0x00, 0x00, 0x00,
  0x04, 0x00, 0x00, 0x00, 0x01, 0x00, 0x00, 0x00, 0x1a, 0x00, 0x00, 0x00,
  0x1a, 0x00, 0x00, 0x00, 0x08, 0x00, 0x00, 0x00, 0x04, 0x00, 0x00, 0x00,
  0xff, 0xff, 0xff, 0xff, 0x1a, 0x00, 0x00, 0x00, 0x1a, 0x00, 0x00, 0x00,
  0x08, 0x00, 0x00, 0x00, 0x7b, 0x00, 0x00, 0x00, 0x73, 0x65, 0x71, 0x75,
  0x65, 0x6e, 0x74, 0x69, 0x61, 0x6c, 0x2f, 0x63, 0x6f, 0x6e, 0x76, 0x32,
  0x64, 0x2f, 0x52, 0x65, 0x6c, 0x75, 0x3b, 0x73, 0x65, 0x71, 0x75, 0x65,
  0x6e, 0x74, 0x69, 0x61, 0x6c, 0x2f, 0x63, 0x6f, 0x6e, 0x76, 0x32, 0x64,
  0x2f, 0x42, 0x69, 0x61, 0x73, 0x41, 0x64, 0x64, 0x3b, 0x73, 0x65, 0x71,
  0x75, 0x65, 0x6e, 0x74, 0x69, 0x61, 0x6c, 0x2f, 0x63, 0x6f, 0x6e, 0x76,
  0x32, 0x64, 0x2f, 0x43, 0x6f, 0x6e, 0x76, 0x32, 0x44, 0x3b, 0x73, 0x65,
  0x71, 0x75, 0x65, 0x6e, 0x74, 0x69, 0x61, 0x6c, 0x2f, 0x63, 0x6f, 0x6e,
  0x76, 0x32, 0x64, 0x2f, 0x42, 0x69, 0x61, 0x73, 0x41, 0x64, 0x64, 0x2f,
  0x52, 0x65, 0x61, 0x64, 0x56, 0x61, 0x72, 0x69, 0x61, 0x62, 0x6c, 0x65,
  0x4f, 0x70, 0x2f, 0x72, 0x65, 0x73, 0x6f, 0x75, 0x72, 0x63, 0x65, 0x00,
  0xdc, 0x81, 0xff, 0xff, 0xe6, 0x82, 0xff, 0xff, 0x04, 0x00, 0x00, 0x00,
  0x00, 0x24, 0x00, 0x00, 0x88, 0xf5, 0x43, 0x3e, 0xae, 0x4a, 0xc8, 0x3d,
  0x03, 0xbf, 0x25, 0xbd, 0xa7, 0x41, 0x3a, 0xbe, 0xe6, 0xca, 0x0b, 0x3c,
  0x92, 0xa2, 0x90, 0x3d, 0x68, 0x9f, 0x11, 0x3e, 0x5c, 0x53, 0x3d, 0x3c,
  0x6e, 0x3c, 0x38, 0x3d, 0x88, 0xc5, 0x33, 0xbe, 0xbf, 0x52, 0x25, 0x3e,
  0xcb, 0x0d, 0x7c, 0x3d, 0x97, 0x51, 0x6c, 0xbd, 0x3e, 0x99, 0x5b, 0x3e,
  0xb0, 0xf9, 0x0c, 0xbe, 0xad, 0xce, 0x9b, 0x3d, 0xe2, 0x6e, 0x3b, 0xbe,
  0x26, 0x32, 0x99, 0x3c, 0x9c, 0xe9, 0x4a, 0x3e, 0x8a, 0xad, 0x41, 0x3e,
  0x1b, 0x4e, 0xef, 0xbd, 0x3d, 0x83, 0xc2, 0x3c, 0xad, 0x8b, 0x02, 0x3d,
  0x72, 0x53, 0xc0, 0x3a, 0xdc, 0x1c, 0x98, 0x3d, 0x84, 0x30, 0x29, 0xbe,
  0xeb, 0x2e, 0x36, 0x3d, 0x16, 0x90, 0xa9, 0x3d, 0x05, 0x8d, 0x26, 0x3d,
  0x22, 0x3f, 0xdc, 0xbd, 0xe6, 0xc7, 0x11, 0xbe, 0x94, 0xb7, 0x15, 0xbe,
  0x60, 0x58, 0xc1, 0xbd, 0x8e, 0xfb, 0xb4, 0xbd, 0xf5, 0x04, 0x3e, 0x3e,
  0x49, 0x89, 0x0b, 0xbb, 0x52, 0xe9, 0x1e, 0x3e, 0xf4, 0x91, 0x9c, 0x3d,
  0x3a, 0x7c, 0xc4, 0x3e, 0x40, 0x4b, 0x70, 0x3d, 0x85, 0x71, 0x1f, 0x3c,
  0x2b, 0x12, 0x9d, 0x3d, 0xc2, 0xa5, 0x54, 0x3a, 0x33, 0xab, 0xbe, 0x3c,
  0xb1, 0x14, 0x5d, 0x3c, 0xe3, 0xe2, 0x33, 0xbe, 0xce, 0xe3, 0x25, 0xbd,
  0xf1, 0x97, 0x6b, 0x3e, 0xbc, 0x2f, 0x11, 0x3c, 0x37, 0xd3, 0xd3, 0x3c,
  0xe5, 0xb3, 0x34, 0x3e, 0x95, 0x32, 0xf2, 0x3c, 0xba, 0x75, 0x3d, 0x3e,
  0x06, 0x81, 0x04, 0xbe, 0x1d, 0xaf, 0x4a, 0x3e, 0x6a, 0xee, 0x02, 0x3e,
  0x5a, 0x16, 0x74, 0x3e, 0x97, 0x3d, 0x2b, 0x3c, 0x8f, 0x9e, 0xb7, 0x3d,
  0xc4, 0x62, 0x0b, 0xbe, 0xa5, 0x06, 0xe9, 0xbd, 0xb2, 0x00, 0xfa, 0x3d,
  0x10, 0x02, 0x3d, 0x3e, 0x56, 0xdd, 0x6c, 0x3e, 0x4f, 0xd4, 0x93, 0x3d,
  0x96, 0x2d, 0x11, 0x3e, 0xe5, 0x88, 0x0f, 0xbe, 0x59, 0x0d, 0xd2, 0x3d,
  0xbc, 0x24, 0xce, 0x3d, 0xd4, 0xea, 0x60, 0xbe, 0x5d, 0x33, 0x3f, 0x3e,
  0x4a, 0x01, 0x24, 0xbe, 0xea, 0x26, 0x3e, 0xbe, 0x88, 0xdc, 0x3f, 0x3c,
  0x2e, 0xbd, 0xb1, 0xbd, 0xee, 0x3f, 0xac, 0x3d, 0xb2, 0x88, 0x89, 0x3c,
  0x47, 0xf9, 0xd9, 0x3d, 0x40, 0x42, 0x0e, 0xbe, 0x32, 0xda, 0xd3, 0xbd,
  0x8a, 0x10, 0x6b, 0xbd, 0x03, 0x65, 0x08, 0x3c, 0x07, 0x65, 0x7e, 0xbd,
  0x19, 0xbd, 0x72, 0xbd, 0x79, 0x4f, 0x50, 0x3e, 0x15, 0x08, 0x9c, 0xbd,
  0x55, 0x01, 0x52, 0x3e, 0x46, 0x6b, 0xa0, 0xbd, 0x4c, 0xe6, 0x0c, 0x3e,
  0x42, 0xe5, 0x86, 0xbc, 0xd3, 0x4b, 0xbf, 0xbc, 0x6f, 0x69, 0x4b, 0x3e,
  0xd0, 0x7c, 0xf9, 0x3d, 0x4d, 0xfd, 0x3e, 0x3e, 0x11, 0x80, 0x45, 0x3e,
  0x5c, 0xe0, 0x95, 0x3d, 0xc6, 0x58, 0x36, 0x3e, 0x23, 0x24, 0x93, 0xbc,
  0x73, 0xd5, 0x28, 0xbd, 0xa7, 0x4b, 0xec, 0x3c, 0xd1, 0xd0, 0x9b, 0x3d,
  0x4c, 0xac, 0x14, 0xbe, 0x4f, 0x34, 0x37, 0xbe, 0x8f, 0xb2, 0x0d, 0xbe,
  0xaa, 0xe7, 0xf0, 0xbd, 0xb1, 0x55, 0x20, 0xbe, 0x4d, 0xa9, 0x45, 0x3c,
  0x88, 0xc5, 0xf1, 0xbd, 0x23, 0x9c, 0x44, 0x3e, 0x33, 0x6c, 0x65, 0x3e,
  0xfe, 0x5c, 0x03, 0xbd, 0x4a, 0xab, 0xe2, 0x3d, 0x28, 0xea, 0x1e, 0xbe,
  0x48, 0xb6, 0x2b, 0x3e, 0xf4, 0x49, 0x45, 0xbc, 0x08, 0x7c, 0x3f, 0xbe,
  0xcc, 0x4a, 0x52, 0x3e, 0x24, 0x57, 0xf2, 0xbc, 0x3a, 0x2c, 0x56, 0xbe,
  0xa0, 0x2e, 0xb6, 0x3c, 0xf1, 0xbb, 0xd6, 0x3d, 0x38, 0x07, 0x23, 0x3e,
  0xdf, 0xcd, 0x12, 0x3d, 0xea, 0x67, 0xf9, 0xbc, 0xa0, 0xd0, 0x39, 0x3e,
  0x61, 0x2d, 0xc8, 0xbd, 0xfb, 0x4a, 0x1c, 0xbe, 0x77, 0x6c, 0x27, 0xbe,
  0xda, 0x4f, 0x04, 0xbe, 0xd0, 0x55, 0xa5, 0x3c, 0x3e, 0x65, 0x64, 0x3e,
  0x14, 0x20, 0xf1, 0xbd, 0x43, 0x24, 0xb3, 0xbd, 0xaf, 0x3e, 0x98, 0xbd,
  0xb0, 0x52, 0x6e, 0x3b, 0x87, 0xf0, 0x43, 0xbe, 0x72, 0x1f, 0x50, 0x3e,
  0x25, 0x23, 0xf4, 0x3c, 0x5d, 0xd9, 0x02, 0xbe, 0x31, 0x0e, 0x5f, 0xbc,
  0x33, 0x01, 0x63, 0xbd, 0xbb, 0xd2, 0x21, 0xbd, 0xef, 0xe4, 0xd9, 0x3c,
  0xdf, 0x3b, 0x85, 0x3d, 0x52, 0x28, 0x2e, 0xbe, 0xfe, 0xa1, 0x0c, 0x3e,
  0x87, 0xb4, 0x08, 0xbe, 0x1d, 0xc8, 0x0c, 0xbe, 0xee, 0x2d, 0xab, 0x3b,
  0x1a, 0x8b, 0xbe, 0xbd, 0x43, 0x0d, 0xfc, 0xbd, 0x3f, 0x53, 0xc4, 0x3d,
  0xc5, 0x36, 0x70, 0x3b, 0xaf, 0x87, 0xce, 0x3d, 0x57, 0x0b, 0x87, 0x3d,
  0xfb, 0x6f, 0x25, 0xbe, 0xb1, 0xba, 0xa6, 0x3d, 0x10, 0x62, 0xb8, 0xbc,
  0x7b, 0x12, 0x42, 0x3e, 0xd4, 0x9e, 0x9c, 0x3d, 0xb2, 0x9a, 0x48, 0x3d,
  0xcf, 0x90, 0x29, 0xbe, 0x33, 0x40, 0xff, 0xbc, 0x72, 0x05, 0x02, 0xbe,
  0x1a, 0xf9, 0x2f, 0xbb, 0xa3, 0x76, 0xe6, 0x3c, 0x20, 0x14, 0xe6, 0xbc,
  0xd0, 0xa0, 0x46, 0xbc, 0xa4, 0x27, 0x65, 0x3e, 0x08, 0xcc, 0x40, 0xbe,
  0xec, 0xf7, 0x4b, 0x3e, 0x42, 0xd1, 0x9b, 0xbc, 0x83, 0x86, 0x08, 0xbe,
  0x36, 0x30, 0x3e, 0x3e, 0xfe, 0x41, 0x18, 0x3e, 0x3f, 0x23, 0xa1, 0x3d,
  0x03, 0x82, 0x9e, 0xbd, 0x71, 0x08, 0x3a, 0x3c, 0x0f, 0x00, 0x03, 0xbe,
  0xce, 0x51, 0xf2, 0x3d, 0x77, 0x19, 0x55, 0x3e, 0xae, 0xd0, 0x84, 0xbd,
  0xf1, 0x4e, 0x87, 0x3d, 0xfe, 0x80, 0x00, 0xbe, 0x36, 0x84, 0x12, 0x3e,
  0x2f, 0xb7, 0x5a, 0x3e, 0x62, 0x29, 0x5c, 0x3e, 0xff, 0x5c, 0x3e, 0xbe,
  0xa4, 0x9c, 0xc0, 0xbd, 0x24, 0xc1, 0x2f, 0xbd, 0x05, 0x7f, 0x07, 0x3d,
  0xf9, 0xa6, 0xe2, 0xbd, 0x90, 0x79, 0x53, 0x3e, 0xa6, 0x0e, 0xb3, 0x3c,
  0xbe, 0x72, 0x26, 0xbd, 0xba, 0x1e, 0x3b, 0x3e, 0xe5, 0x09, 0x0d, 0x3e,
  0xbf, 0x53, 0xba, 0xbd, 0xc2, 0xe2, 0x6e, 0x3d, 0xa3, 0xf2, 0x00, 0xbe,
  0x21, 0x7e, 0x98, 0x3c, 0x11, 0x13, 0x08, 0xbe, 0x51, 0xb5, 0x3d, 0x3e,
  0xa0, 0xad, 0x52, 0x3d, 0xb1, 0xf3, 0x38, 0x3c, 0x32, 0x59, 0xaf, 0x3c,
  0x3b, 0xce, 0xfb, 0x3c, 0x4e, 0x2b, 0x6e, 0x3e, 0xc4, 0x04, 0xb3, 0x3d,
  0x29, 0x3e, 0xed, 0xbd, 0x39, 0x54, 0x63, 0x3e, 0xd5, 0xe2, 0xad, 0x3d,
  0xb5, 0x0a, 0x97, 0xbd, 0xae, 0x4b, 0xad, 0x3c, 0x39, 0x33, 0x52, 0x3e,
  0x25, 0x66, 0x2f, 0xbd, 0x54, 0x64, 0xdc, 0x3d, 0xb7, 0x93, 0x4a, 0x3e,
  0x19, 0x36, 0x9d, 0x3d, 0xf2, 0x98, 0x5f, 0x3d, 0x01, 0x30, 0x14, 0x3e,
  0x2e, 0xaa, 0x22, 0x3e, 0x9a, 0xf9, 0x17, 0x3e, 0x0e, 0x8a, 0x10, 0x3e,
  0xb1, 0x84, 0x0c, 0xbc, 0x39, 0xdd, 0x82, 0x3d, 0x75, 0x6f, 0x44, 0xbd,
  0x3c, 0x40, 0x88, 0xbd, 0x0e, 0x18, 0x14, 0xbe, 0x3e, 0xf1, 0x54, 0xbd,
  0x1c, 0x9e, 0x0d, 0x3d, 0xab, 0x44, 0x2e, 0x3e, 0x7c, 0xcd, 0xb4, 0x3d,
  0x69, 0x6e, 0x8d, 0x3d, 0xf0, 0x25, 0x0b, 0x3e, 0x2d, 0xb9, 0x1a, 0xbd,
  0xf5, 0xf7, 0x7b, 0xb9, 0x37, 0x0d, 0x21, 0xbe, 0x28, 0xaf, 0x61, 0x3e,
  0xa0, 0xa0, 0x1b, 0x3d, 0x6b, 0x9c, 0x08, 0xbe, 0xbb, 0x71, 0x4a, 0xbe,
  0x7d, 0x7f, 0x11, 0x3e, 0xe2, 0x70, 0x28, 0x3e, 0x09, 0x73, 0x12, 0xbe,
  0xf0, 0xd8, 0x4f, 0xbb, 0x4c, 0x05, 0x39, 0x3e, 0x25, 0x1e, 0xa8, 0xbd,
  0xc8, 0x2b, 0xe8, 0xbd, 0x7c, 0x24, 0xed, 0xbd, 0xd6, 0x53, 0x18, 0x3e,
  0x00, 0x34, 0x12, 0x3e, 0x52, 0x99, 0x0a, 0xbe, 0x42, 0x72, 0x35, 0x3e,
  0x8b, 0xd2, 0x84, 0xbd, 0xa0, 0x35, 0x7f, 0x3e, 0x00, 0x76, 0xf1, 0xbd,
  0xeb, 0x0c, 0x69, 0xbd, 0x04, 0xa7, 0x30, 0x3e, 0x57, 0xe8, 0x0f, 0x3e,
  0x10, 0x7f, 0xb4, 0xbd, 0xdb, 0x90, 0x62, 0x3d, 0x09, 0x26, 0xcb, 0xbd,
  0x30, 0xef, 0x43, 0x3e, 0x01, 0x9b, 0xc3, 0xbd, 0xe7, 0xf9, 0x92, 0xbd,
  0x6d, 0xe1, 0x6d, 0xbd, 0x98, 0x5b, 0xfa, 0x3d, 0xd6, 0xeb, 0x85, 0xbb,
  0x1c, 0x91, 0xd8, 0x3d, 0xda, 0x16, 0x30, 0xbe, 0xa8, 0x4d, 0xc8, 0xbd,
  0xc9, 0x38, 0xa3, 0xbc, 0x16, 0xe8, 0xe7, 0xbb, 0x36, 0x20, 0x34, 0xbe,
  0xfd, 0x09, 0x8c, 0xbc, 0xbe, 0x4b, 0x2f, 0x3e, 0x0c, 0x2e, 0x72, 0x3d,
  0x42, 0x84, 0x41, 0x3e, 0x91, 0x3d, 0x90, 0x3d, 0x1f, 0xe5, 0x7d, 0x3d,
  0x7a, 0x1e, 0x10, 0x3e, 0xad, 0x58, 0xf8, 0x3d, 0xf3, 0x05, 0x9b, 0x3d,
  0x36, 0xa4, 0x24, 0x3d, 0x76, 0xce, 0xa6, 0x3d, 0xe0, 0xe0, 0xa8, 0xbd,
  0xe4, 0x1e, 0x01, 0xbe, 0x00, 0xbf, 0x03, 0x3e, 0x96, 0x50, 0xc7, 0x3d,
  0xfd, 0x34, 0x8a, 0x3d, 0x76, 0x80, 0xed, 0x3d, 0x8e, 0x75, 0x14, 0x3e,
  0x4b, 0x17, 0x84, 0xbd, 0x38, 0xc2, 0xc5, 0xbd, 0x96, 0xb6, 0x31, 0xbe,
  0x17, 0xdb, 0x0d, 0x3d, 0x04, 0xd0, 0xa5, 0xbd, 0x7a, 0xf3, 0xf1, 0x3d,
  0x65, 0x0e, 0x2b, 0xbe, 0xab, 0x45, 0xf6, 0x3d, 0x64, 0xf5, 0x8d, 0x3c,
  0x72, 0x88, 0xe0, 0xbd, 0xeb, 0x39, 0x01, 0xbe, 0x75, 0xdc, 0x36, 0x3d,
  0x4a, 0x83, 0x2a, 0x3e, 0x12, 0x31, 0xab, 0x3d, 0x5a, 0x13, 0x9b, 0x3d,
  0xeb, 0xc2, 0x34, 0xbe, 0x0b, 0xf2, 0x4b, 0xbe, 0x2d, 0xf9, 0x33, 0xbd,
  0xdd, 0x5c, 0xc4, 0x3c, 0x2d, 0x82, 0xf3, 0xbd, 0x2f, 0xa4, 0x23, 0x3d,
  0x70, 0xac, 0xf3, 0x3d, 0xb3, 0x34, 0x2a, 0x3e, 0x19, 0x30, 0x27, 0x3e,
  0xc9, 0x8b, 0x46, 0x3e, 0xae, 0x21, 0xdc, 0x3c, 0x51, 0xa6, 0xb6, 0x3c,
  0x82, 0x5d, 0xb0, 0x3d, 0x1d, 0xde, 0xe4, 0xbd, 0x0b, 0x02, 0x28, 0xbe,
  0xcf, 0xd1, 0xa2, 0x3d, 0x23, 0xe9, 0x1e, 0x3e, 0x06, 0x32, 0x89, 0x3d,
  0x99, 0x53, 0xf8, 0x3d, 0xdf, 0x5b, 0x4c, 0x3e, 0xa8, 0x6a, 0x0f, 0xbe,
  0xf4, 0x9b, 0x06, 0x3e, 0x6e, 0x0f, 0x78, 0xbd, 0x88, 0xa4, 0x2a, 0xbe,
  0xd4, 0x5a, 0x3a, 0xbd, 0x7b, 0xa3, 0x00, 0x3d, 0x00, 0xed, 0x0d, 0xbe,
  0xc1, 0x6b, 0x58, 0x3d, 0xba, 0x1f, 0x58, 0xbd, 0xc7, 0x50, 0x0a, 0x3e,
  0x15, 0xb9, 0x22, 0x3e, 0xab, 0xc5, 0x43, 0x3e, 0x91, 0x00, 0x69, 0x3b,
  0x73, 0x51, 0x81, 0x3d, 0xfa, 0xc0, 0x1e, 0x3e, 0xe2, 0xee, 0x3c, 0x3e,
  0x2e, 0xed, 0x39, 0x3e, 0xb5, 0x58, 0x8d, 0xbd, 0x98, 0x54, 0x8d, 0x3d,
  0xf1, 0xd3, 0xce, 0x3d, 0x05, 0x6e, 0xfd, 0xbd, 0x6d, 0xfe, 0x1f, 0xbe,
  0x89, 0x83, 0x4d, 0xbc, 0xa7, 0x4a, 0xf8, 0xbd, 0x2d, 0x0c, 0xf8, 0x3a,
  0xa5, 0x2c, 0xc8, 0xbd, 0x96, 0x45, 0x22, 0xbe, 0xeb, 0xbf, 0x15, 0xbd,
  0x4b, 0xb3, 0xaa, 0x3d, 0x0e, 0xae, 0x14, 0xbe, 0xe4, 0x8e, 0x23, 0xbe,
  0x8e, 0xcf, 0x9a, 0xbd, 0xe0, 0xbd, 0x0b, 0x3d, 0xa4, 0x95, 0x81, 0x3d,
  0x3a, 0x88, 0x15, 0x3e, 0xda, 0x2b, 0xf9, 0x3d, 0xc4, 0x5b, 0x85, 0x3d,
  0xac, 0xfb, 0x87, 0x3d, 0x86, 0x87, 0x2a, 0x3e, 0xa6, 0xbb, 0x0b, 0x3e,
  0x85, 0xdd, 0x2f, 0xbe, 0x5e, 0xc3, 0x66, 0x3d, 0xd0, 0x86, 0x67, 0xbd,
  0xa3, 0x3a, 0x00, 0xbd, 0xd5, 0xb3, 0xf4, 0x3d, 0xe2, 0xe4, 0xff, 0x3d,
  0xed, 0xe1, 0xb3, 0x3d, 0x93, 0x5c, 0x06, 0xbe, 0xf3, 0xf7, 0xf3, 0xbc,
  0xec, 0x10, 0x36, 0xbe, 0x88, 0x1d, 0xee, 0x3d, 0xa9, 0xf9, 0x30, 0xbe,
  0x37, 0xe4, 0x69, 0xbb, 0xf8, 0x5c, 0x7d, 0x3d, 0xd1, 0x57, 0xac, 0xbd,
  0x59, 0x8d, 0x57, 0xbe, 0x07, 0x02, 0x2c, 0xbd, 0x3d, 0x67, 0x06, 0x3e,
  0x8b, 0xdc, 0x62, 0xbd, 0xc8, 0x8b, 0x5e, 0x3d, 0x15, 0x47, 0x3b, 0xbd,
  0x6c, 0x98, 0xcd, 0xbd, 0xd1, 0x46, 0xab, 0x3d, 0x56, 0xeb, 0xe4, 0xbd,
  0xb8, 0x46, 0x2a, 0x3e, 0xa8, 0x78, 0xe6, 0x3d, 0xef, 0x50, 0x39, 0x3e,
  0x69, 0x64, 0x12, 0xbe, 0xd0, 0x4b, 0x41, 0xbd, 0xf4, 0x8b, 0x43, 0x3e,
  0xbd, 0x55, 0xf2, 0xbd, 0x1f, 0xc2, 0xec, 0x3d, 0x49, 0x67, 0xc1, 0xbc,
  0x1d, 0xa9, 0xe7, 0x3b, 0x1d, 0xa7, 0x39, 0xbe, 0xb2, 0x05, 0x1b, 0xbd,
  0xf6, 0x42, 0x03, 0x3e, 0x06, 0x0c, 0xf9, 0x3d, 0xc2, 0xda, 0x3f, 0x3d,
  0xfe, 0xe0, 0x73, 0xbc, 0x24, 0xc0, 0xe3, 0xbd, 0x4d, 0xd1, 0x9f, 0x3c,
  0xfb, 0xa0, 0x15, 0xbd, 0xc0, 0x12, 0xa5, 0x3c, 0x01, 0xa9, 0x19, 0xbe,
  0xb4, 0xc7, 0xa5, 0x3d, 0xce, 0x74, 0x7c, 0xbd, 0x07, 0x27, 0xf3, 0x3d,
  0xab, 0xf5, 0x2d, 0xbe, 0xdc, 0xb4, 0x94, 0xbd, 0x15, 0xf5, 0x02, 0x3e,
  0x3a, 0x1a, 0x0b, 0x3c, 0xd8, 0x03, 0x06, 0x3d, 0x98, 0xe1, 0xb6, 0xbc,
  0x52, 0x4a, 0x71, 0xbd, 0x5c, 0x0b, 0x48, 0x3d, 0x0a, 0xd4, 0x31, 0x3e,
  0x7e, 0x9a, 0x8b, 0x3c, 0x24, 0x01, 0x1e, 0x3d, 0xc0, 0x53, 0xd4, 0xbc,
  0x9e, 0x70, 0x81, 0xbd, 0x51, 0xd2, 0x1a, 0xbe, 0x91, 0x76, 0x08, 0x3c,
  0x59, 0xc3, 0x19, 0xbe, 0x1a, 0xe6, 0x9a, 0xbd, 0xd9, 0xb3, 0x95, 0xbd,
  0xc3, 0x89, 0x3f, 0xbe, 0x43, 0x4e, 0xdb, 0x3d, 0x85, 0xa6, 0x43, 0x3e,
  0x65, 0xa0, 0x0f, 0xba, 0x28, 0xf8, 0x04, 0x3c, 0x7a, 0x30, 0x1a, 0xbd,
  0x7e, 0xc5, 0xf4, 0x3c, 0x98, 0x2b, 0x07, 0xbe, 0x2a, 0x18, 0xbb, 0xbd,
  0x38, 0x1d, 0x3e, 0xbe, 0xa3, 0x74, 0x1d, 0xbe, 0x96, 0xdf, 0x23, 0xbe,
  0x59, 0xf5, 0x15, 0xbe, 0x55, 0x79, 0x16, 0x3e, 0xfa, 0x72, 0xe2, 0x3d,
  0xfa, 0x9c, 0x2c, 0xbe, 0x88, 0xb9, 0x5d, 0xbd, 0xf4, 0x10, 0x92, 0x3d,
  0x2b, 0x23, 0xe8, 0xbd, 0xb8, 0x98, 0xbd, 0xbd, 0x34, 0x1c, 0x37, 0x3d,
  0xae, 0x50, 0xdd, 0x3d, 0x9f, 0x00, 0x18, 0xbe, 0xc0, 0x0e, 0x97, 0x3d,
  0x17, 0xab, 0x80, 0xbd, 0x98, 0x0b, 0x52, 0xbd, 0x36, 0xed, 0x09, 0x3e,
  0xab, 0xc0, 0xed, 0x3d, 0xc5, 0x84, 0xec, 0x3c, 0x38, 0xd3, 0x3b, 0x3e,
  0x7e, 0xdd, 0xef, 0xbd, 0x73, 0xc8, 0x25, 0x3d, 0x18, 0xab, 0x80, 0x3e,
  0x32, 0x1a, 0xac, 0xbd, 0xbd, 0xa7, 0x35, 0x3c, 0x95, 0x31, 0xb4, 0xbd,
  0xbc, 0xad, 0xb4, 0x3e, 0xcd, 0x7f, 0x4e, 0x3e, 0x4e, 0x63, 0x34, 0x3e,
  0x81, 0x51, 0x4d, 0x3e, 0x3f, 0x11, 0xa0, 0x3d, 0x73, 0x2c, 0xf5, 0x3d,
  0x54, 0x72, 0xbe, 0xbd, 0x66, 0x57, 0x36, 0x3e, 0x46, 0x16, 0x48, 0xbe,
  0x37, 0xac, 0x65, 0x3e, 0xe9, 0xcd, 0xdc, 0xbc, 0x4a, 0x8c, 0x86, 0x3d,
  0x06, 0xd9, 0xaa, 0x3d, 0x1a, 0x0e, 0x4a, 0x3e, 0x06, 0x44, 0x02, 0xbc,
  0xd0, 0x98, 0x3b, 0x3e, 0xac, 0x22, 0x77, 0x3d, 0xd8, 0x1d, 0xb1, 0x3b,
  0x9b, 0x78, 0x3b, 0x3e, 0x2f, 0x6e, 0x4d, 0x3e, 0x48, 0xd5, 0xef, 0x3d,
  0xa7, 0xd4, 0x8c, 0xbb, 0xe9, 0x4f, 0x3f, 0xbe, 0x68, 0x9a, 0x9d, 0xbd,
  0xdd, 0x68, 0x05, 0xbc, 0xa7, 0x84, 0xb3, 0xbd, 0x7f, 0x2d, 0x31, 0xbe,
  0x8e, 0x0f, 0x96, 0xbd, 0x73, 0x7f, 0xab, 0xbd, 0x2c, 0x3e, 0x1b, 0xbe,
  0xed, 0xef, 0xdc, 0xbd, 0x4e, 0x18, 0xcb, 0x3d, 0x2e, 0xff, 0x7e, 0x3c,
  0xaa, 0x1e, 0xdf, 0xbd, 0xb6, 0x11, 0x34, 0x3c, 0xcf, 0x4d, 0x92, 0xbd,
  0x4d, 0xd9, 0x1d, 0x3e, 0x53, 0x56, 0x2f, 0x3d, 0x56, 0xd8, 0x56, 0x3d,
  0xa4, 0x8a, 0x9e, 0x3c, 0x83, 0xe6, 0x1c, 0xbd, 0x1c, 0x76, 0xa2, 0xbd,
  0x86, 0xa2, 0xde, 0x3d, 0x3e, 0x64, 0xab, 0x3d, 0xaa, 0xe8, 0xeb, 0x3c,
  0x9e, 0x7b, 0x31, 0x3e, 0x6d, 0x30, 0x21, 0xbe, 0x43, 0x38, 0x85, 0xbb,
  0x99, 0xe5, 0xa7, 0x3e, 0x49, 0x09, 0xc8, 0x3d, 0x95, 0xad, 0xd0, 0xbd,
  0x5c, 0xb8, 0x36, 0x3e, 0x33, 0x30, 0x36, 0x3e, 0x26, 0xfb, 0x95, 0xbd,
  0xfb, 0x2f, 0x0f, 0x3d, 0xe0, 0x50, 0x4b, 0x3e, 0x43, 0x60, 0x20, 0xbe,
  0x46, 0xb5, 0x52, 0xbd, 0x37, 0x05, 0xaa, 0x3b, 0xa6, 0xb2, 0x51, 0xbe,
  0x81, 0xac, 0x4f, 0xbd, 0x4b, 0xa8, 0xbd, 0xbd, 0x4a, 0xfb, 0x84, 0x3c,
  0x5f, 0x03, 0xba, 0xbd, 0x00, 0x23, 0xcf, 0x3d, 0x0d, 0x52, 0xeb, 0xbd,
  0x33, 0x1c, 0x42, 0x3e, 0x4f, 0x85, 0xe7, 0xbd, 0x38, 0xe2, 0x64, 0xbd,
  0x58, 0x74, 0x0b, 0xbc, 0x79, 0x78, 0xee, 0x3d, 0x24, 0x14, 0xd3, 0x3d,
  0xf6, 0xd1, 0x08, 0x3e, 0x6a, 0x88, 0xbd, 0xbd, 0x9c, 0x6c, 0x48, 0xbd,
  0xb1, 0xe8, 0x21, 0xbd, 0x47, 0x7e, 0x8e, 0xbc, 0x43, 0xe8, 0x8c, 0xbd,
  0xc9, 0x47, 0xeb, 0x3d, 0x37, 0xe0, 0xe2, 0xbc, 0x60, 0xff, 0x03, 0x3e,
  0x95, 0x31, 0xda, 0x3d, 0xcf, 0x6e, 0x2f, 0xbe, 0x26, 0xa7, 0x48, 0x3e,
  0x32, 0x10, 0xd3, 0xbd, 0x5c, 0x80, 0xb7, 0xbd, 0x0b, 0x27, 0x29, 0x3e,
  0x6d, 0x79, 0x99, 0x3d, 0xbd, 0x3c, 0x51, 0x3d, 0x83, 0x14, 0x38, 0x3e,
  0x46, 0x12, 0x26, 0x3e, 0x0b, 0xad, 0x3d, 0xbd, 0x5c, 0x15, 0xd4, 0xbd,
  0x3a, 0x82, 0x79, 0xbd, 0x8c, 0x45, 0xe3, 0x3d, 0x71, 0x90, 0xe7, 0xbd,
  0x64, 0x46, 0xb5, 0x3c, 0xe8, 0xc6, 0x4b, 0xbe, 0x63, 0x44, 0x22, 0xbe,
  0xf4, 0x36, 0x8e, 0x3d, 0xde, 0x12, 0x21, 0xbe, 0x48, 0x6b, 0x14, 0x3e,
  0xb3, 0xcb, 0xae, 0xbd, 0x1e, 0xd6, 0x50, 0xbe, 0x9e, 0xcd, 0x99, 0xbd,
  0x88, 0x98, 0x31, 0x3d, 0x21, 0x67, 0x2d, 0x3e, 0x87, 0x90, 0x9b, 0x3c,
  0x62, 0x26, 0x46, 0x3e, 0x18, 0xb5, 0xdb, 0xbd, 0x08, 0x86, 0x0b, 0x3e,
  0x44, 0xe0, 0x41, 0xbb, 0xd3, 0xb4, 0x19, 0xbe, 0x0c, 0x1a, 0x4d, 0x3e,
  0x8c, 0x9d, 0xc8, 0xbd, 0xf7, 0x7b, 0x42, 0x3e, 0xc7, 0x34, 0x01, 0x3e,
  0xc9, 0x09, 0x1c, 0x3e, 0x34, 0xcb, 0xbf, 0x3c, 0x27, 0xa7, 0xcb, 0xbc,
  0x1b, 0xde, 0xa3, 0xbd, 0xd4, 0x5f, 0x8c, 0x3d, 0x72, 0x1d, 0xb3, 0x3c,
  0xf9, 0x3a, 0x02, 0xbe, 0x0a, 0x71, 0x0f, 0x3e, 0x1b, 0x4f, 0x36, 0xbe,
  0xa0, 0x81, 0x1e, 0x3e, 0x5d, 0x60, 0x30, 0xbe, 0x6a, 0xad, 0x7f, 0xb9,
  0x31, 0x39, 0x0c, 0xbe, 0x5c, 0x78, 0xe8, 0x3d, 0x4b, 0x8e, 0xe8, 0x3d,
  0x2e, 0x87, 0x82, 0xbd, 0xd1, 0x68, 0xee, 0xbb, 0xf7, 0x8d, 0x07, 0x3d,
  0x13, 0xbb, 0xc7, 0xbd, 0x00, 0x32, 0x2c, 0xbd, 0xff, 0xad, 0x59, 0x3e,
  0x72, 0xdd, 0xab, 0x3d, 0x4c, 0xb0, 0x81, 0x3d, 0x6c, 0x0e, 0xc8, 0xbd,
  0xd3, 0x33, 0x3a, 0x3e, 0xb6, 0x13, 0x04, 0xbe, 0x97, 0xaa, 0xa0, 0x3c,
  0xf3, 0xd4, 0xa8, 0xbd, 0x5d, 0xdf, 0x13, 0xbe, 0xb8, 0x8e, 0xff, 0x3b,
  0x8a, 0x48, 0x06, 0x3e, 0xae, 0xd9, 0x27, 0x3e, 0x4f, 0x23, 0x34, 0x3d,
  0xdc, 0xc6, 0x9a, 0xbc, 0x6f, 0x3e, 0x17, 0x3e, 0x27, 0xd9, 0xdc, 0xbd,
  0xa0, 0xc1, 0xc6, 0x3d, 0x9c, 0x86, 0x0e, 0x3d, 0xd1, 0x20, 0x34, 0x3e,
  0x67, 0x44, 0x84, 0x3d, 0x7d, 0xe4, 0xd1, 0xbd, 0x35, 0x43, 0x2c, 0xbe,
  0x55, 0xa5, 0x28, 0xbd, 0x47, 0x14, 0x56, 0x3d, 0x2e, 0x72, 0xb6, 0x3d,
  0x9d, 0xe1, 0xd0, 0xbd, 0x71, 0xe9, 0xf0, 0x3d, 0xc2, 0x29, 0xed, 0x3c,
  0x8f, 0x0d, 0x18, 0x3e, 0xa3, 0x1b, 0x21, 0x3e, 0x9b, 0xad, 0xac, 0x3d,
  0x56, 0x7c, 0x23, 0x3e, 0xa9, 0x86, 0x6b, 0x3b, 0x38, 0x9d, 0x55, 0xbd,
  0x9b, 0xf8, 0x07, 0x3e, 0xcc, 0xf2, 0x23, 0x3e, 0x64, 0xe6, 0x12, 0xbe,
  0x8a, 0xbe, 0x2e, 0xbe, 0x7a, 0x79, 0xc8, 0xbd, 0x64, 0xcb, 0x32, 0x3e,
  0x7f, 0xae, 0xac, 0xbd, 0x40, 0x6a, 0xbc, 0xbd, 0xfb, 0x5e, 0x3a, 0x3e,
  0x0a, 0x6c, 0xf3, 0x3d, 0x11, 0x41, 0x4c, 0xbc, 0xbe, 0xd3, 0x33, 0x3e,
  0x9f, 0xc1, 0x4d, 0x3d, 0xc8, 0xcc, 0xc4, 0x3d, 0xc7, 0x1b, 0xe9, 0xbd,
  0x08, 0x46, 0x89, 0x3d, 0xc0, 0x5a, 0x4e, 0x3e, 0xc6, 0xce, 0x64, 0x3e,
  0x26, 0xc4, 0x38, 0xbe, 0xc6, 0xe6, 0x2e, 0x3e, 0x3a, 0xee, 0x34, 0x3e,
  0xb2, 0xaa, 0x53, 0xbe, 0xa7, 0x01, 0x25, 0xbe, 0x14, 0x26, 0x02, 0xbe,
  0x68, 0xa5, 0x37, 0xbe, 0x15, 0xf6, 0x00, 0xbe, 0x93, 0x33, 0x37, 0x3e,
  0x65, 0xec, 0x2e, 0x3d, 0x1a, 0xab, 0x1e, 0xbe, 0x47, 0x4b, 0x31, 0x3d,
  0xbb, 0x22, 0x4a, 0x3e, 0x9f, 0x01, 0x3c, 0x3e, 0x45, 0x05, 0xc7, 0x3d,
  0x32, 0xf2, 0x0d, 0xbe, 0xd0, 0x61, 0x42, 0x3e, 0x0c, 0x36, 0x00, 0xbe,
  0x3a, 0xfe, 0xbb, 0x3c, 0xb1, 0xcd, 0xd3, 0x3d, 0xe6, 0x04, 0x8a, 0x3b,
  0x34, 0xb7, 0x6b, 0xbd, 0x7c, 0xc3, 0xdf, 0xbd, 0x27, 0xd4, 0x0e, 0x3e,
  0xaf, 0x89, 0x1d, 0x3d, 0xa8, 0xf4, 0x5b, 0x3e, 0xf2, 0x92, 0xaf, 0x3d,
  0xb2, 0x4b, 0x55, 0x3e, 0x36, 0x4b, 0xe9, 0x3d, 0x80, 0x42, 0x3c, 0x3e,
  0x4d, 0x59, 0xc0, 0x3b, 0x41, 0xe1, 0xc4, 0xbd, 0x08, 0x4d, 0x17, 0x3e,
  0x45, 0xf2, 0x66, 0xbd, 0x96, 0x78, 0x17, 0x3e, 0x23, 0x2b, 0xbe, 0xbd,
  0xa3, 0xf7, 0x1d, 0xbe, 0xbd, 0xd0, 0x53, 0x3e, 0x5c, 0x04, 0x5e, 0x3c,
  0x22, 0xb7, 0x21, 0x3e, 0x3a, 0xd7, 0x44, 0x3e, 0x15, 0x0b, 0xc6, 0xbd,
  0x3f, 0x13, 0xe1, 0x3d, 0x5e, 0x2e, 0x99, 0x3b, 0x8a, 0x3c, 0xd4, 0x3b,
  0xaf, 0xae, 0x10, 0x3e, 0x5d, 0xe5, 0x3b, 0x3e, 0xe9, 0x3d, 0x9e, 0xbd,
  0xa0, 0x3d, 0xb5, 0x3d, 0xd5, 0x7c, 0x26, 0x3e, 0x68, 0x8f, 0x07, 0xbe,
  0xc5, 0x40, 0x39, 0x3e, 0x45, 0xc8, 0x24, 0x3e, 0x58, 0x85, 0xf1, 0xbc,
  0xd0, 0xbb, 0x2b, 0x3e, 0x89, 0xae, 0x2b, 0x3b, 0xae, 0xbb, 0x79, 0x3b,
  0x7d, 0x5c, 0x30, 0xbe, 0x75, 0x33, 0x4f, 0xbc, 0x08, 0x08, 0xfe, 0x3d,
  0xd5, 0xb8, 0xcc, 0x3d, 0x34, 0x8f, 0xfc, 0xbd, 0x94, 0xc0, 0x1d, 0xbd,
  0x59, 0x9b, 0x5e, 0xbe, 0xa0, 0x74, 0x19, 0xbe, 0x00, 0x00, 0xce, 0xbd,
  0x98, 0x29, 0xe1, 0xbd, 0xd6, 0x8e, 0x89, 0xbd, 0xbc, 0x9a, 0xe2, 0x3d,
  0x9f, 0x42, 0x6d, 0x3c, 0xe6, 0xf8, 0xe6, 0xbd, 0x87, 0x29, 0xd6, 0xbc,
  0x4b, 0xee, 0x21, 0xbe, 0xc8, 0x5d, 0x3f, 0xbe, 0x95, 0xe3, 0xbd, 0xbd,
  0x7e, 0xee, 0x30, 0x3e, 0x68, 0x6b, 0x30, 0xbe, 0x00, 0x11, 0x14, 0x3d,
  0x28, 0x32, 0x28, 0x3e, 0xf0, 0xfe, 0x00, 0xbe, 0xcf, 0x67, 0xd1, 0xbd,
  0x49, 0x90, 0x8b, 0x3d, 0xe2, 0x24, 0x07, 0xbd, 0x3d, 0xec, 0xf0, 0x3d,
  0x3d, 0x8a, 0xac, 0xbb, 0x67, 0x03, 0xca, 0x3b, 0xc9, 0xb5, 0x9d, 0x3b,
  0x1a, 0xfa, 0x57, 0xbe, 0xc4, 0x61, 0xd1, 0x3d, 0xc8, 0xa2, 0xbf, 0x3d,
  0xb5, 0xce, 0x2d, 0x3d, 0x09, 0xde, 0xe6, 0xbd, 0x41, 0x75, 0x3b, 0x3e,
  0x25, 0x74, 0x1c, 0x3e, 0x93, 0x88, 0x55, 0xbd, 0x94, 0x9b, 0x26, 0x3e,
  0x35, 0xae, 0x03, 0x3e, 0x0c, 0xfe, 0xc9, 0xbc, 0x7c, 0xf4, 0xa3, 0x3d,
  0x02, 0x9a, 0x95, 0x3e, 0x8f, 0xe2, 0x40, 0xbe, 0x40, 0xa1, 0x2b, 0xbe,
  0xa7, 0x05, 0x93, 0xbd, 0xfe, 0x1b, 0x48, 0xbe, 0xaa, 0x50, 0xff, 0xbd,
  0xe6, 0x68, 0xe5, 0x3d, 0x2a, 0x82, 0x42, 0xbd, 0x18, 0xb6, 0xd4, 0xbd,
  0x70, 0x87, 0x6e, 0x3e, 0x8b, 0xa3, 0x0a, 0xbe, 0x3a, 0xd5, 0xb9, 0x3d,
  0x48, 0xea, 0x3c, 0x3e, 0x86, 0xe4, 0x36, 0xbe, 0x27, 0xe0, 0xa9, 0x3d,
  0x77, 0xe9, 0x87, 0xbc, 0xc9, 0xcc, 0x68, 0xbd, 0x82, 0xd9, 0x46, 0xbe,
  0xb8, 0xae, 0xe0, 0x3d, 0xad, 0x55, 0xc3, 0xbd, 0x34, 0xc9, 0xb1, 0xbd,
  0xb9, 0xb7, 0x19, 0x3d, 0x0b, 0x34, 0xdc, 0xbc, 0x0b, 0x2d, 0x2c, 0xbd,
  0x6c, 0xf0, 0xeb, 0x3d, 0xf5, 0x4c, 0xcd, 0x3d, 0x7b, 0x5d, 0x0c, 0x3e,
  0xe4, 0x9c, 0xe9, 0x3d, 0x0e, 0x5d, 0x7a, 0xbe, 0x77, 0x37, 0x3b, 0x3e,
  0x9a, 0xfe, 0xe7, 0xbb, 0xea, 0x6a, 0x06, 0xbe, 0x91, 0xc0, 0x01, 0xbd,
  0xa5, 0x04, 0x2c, 0x3e, 0x74, 0x3f, 0x13, 0x3d, 0x73, 0xb7, 0x1e, 0x3d,
  0x6c, 0x51, 0x14, 0xbe, 0xec, 0xef, 0x13, 0x3e, 0xa4, 0x6b, 0x69, 0xbe,
  0x5d, 0xd3, 0x84, 0xbd, 0x9d, 0xe6, 0x62, 0xbe, 0xc2, 0x40, 0x9e, 0xbc,
  0xae, 0xc5, 0xcb, 0x3d, 0xfd, 0x68, 0x5b, 0x3b, 0xc6, 0x80, 0xc6, 0xbc,
  0xd5, 0xd2, 0x26, 0x3e, 0x8d, 0x40, 0xb6, 0x3d, 0x25, 0x95, 0x88, 0x3e,
  0xf7, 0x67, 0x0e, 0x3e, 0xba, 0xfe, 0x22, 0x3d, 0x8b, 0x9e, 0x8b, 0x3d,
  0x1d, 0x36, 0x1e, 0xbe, 0xc6, 0xab, 0x43, 0x3e, 0x99, 0xe8, 0x6e, 0xbd,
  0x22, 0x64, 0x27, 0x3d, 0x3a, 0x1c, 0x6a, 0x39, 0xaf, 0x29, 0x50, 0xbe,
  0x5f, 0xd8, 0x46, 0x3e, 0x32, 0xbc, 0xc0, 0xbc, 0x5a, 0xdc, 0x04, 0xbe,
  0x69, 0x84, 0x89, 0x3b, 0x79, 0x0e, 0x37, 0x3e, 0x6b, 0x59, 0x8d, 0xbd,
  0x31, 0xce, 0x83, 0x3d, 0x92, 0x0a, 0x4b, 0x3e, 0xf2, 0x7a, 0xf2, 0x3d,
  0x13, 0x49, 0x1d, 0xbe, 0xbf, 0x57, 0xc5, 0xbd, 0x90, 0xbf, 0x16, 0x3d,
  0xc8, 0xcb, 0x16, 0x3e, 0x36, 0xca, 0x4b, 0xbe, 0xab, 0x77, 0x54, 0x3b,
  0xe7, 0x86, 0xca, 0x3d, 0x08, 0x3f, 0x9c, 0x3d, 0x1a, 0x14, 0xfa, 0x3c,
  0x0d, 0x7c, 0xee, 0xbd, 0x44, 0x95, 0x43, 0x3c, 0x9b, 0x64, 0x26, 0x3e,
  0xd2, 0xac, 0x37, 0x3d, 0xb2, 0x7f, 0x22, 0x3e, 0x1b, 0xcb, 0x9f, 0xbd,
  0x08, 0x24, 0x27, 0x3e, 0x8d, 0x86, 0xf3, 0x3d, 0xf2, 0xaf, 0x01, 0xbe,
  0x9a, 0x74, 0x14, 0x3e, 0x3a, 0x7c, 0x54, 0xbe, 0x34, 0x88, 0xf9, 0xbd,
  0xcb, 0x3c, 0x9c, 0x3d, 0x93, 0xf5, 0x4d, 0x3e, 0x8c, 0x5e, 0x03, 0x3e,
  0x41, 0xf9, 0x42, 0xbd, 0x3e, 0x63, 0x11, 0x3e, 0xe0, 0x9e, 0x38, 0xbe,
  0xe9, 0x31, 0x83, 0x3d, 0x48, 0x2d, 0x10, 0xbe, 0x99, 0xbe, 0x1a, 0xbd,
  0x48, 0xba, 0x3e, 0xbc, 0xcd, 0x4a, 0x01, 0xbe, 0xa1, 0x1a, 0x21, 0xbe,
  0x48, 0xe3, 0x91, 0x3d, 0x37, 0xf7, 0x33, 0x3e, 0x6b, 0x7c, 0x02, 0xbe,
  0x30, 0x4f, 0x10, 0xbe, 0x5d, 0xdc, 0x4c, 0xbe, 0xe8, 0xee, 0xf2, 0xbd,
  0x70, 0xf1, 0x9c, 0x3b, 0xf2, 0xa0, 0x05, 0xbe, 0xf8, 0x4c, 0x43, 0xbe,
  0xe1, 0x46, 0xed, 0x3d, 0xe0, 0x4c, 0xb8, 0x3d, 0x12, 0x4d, 0x35, 0xbd,
  0x71, 0xe3, 0xa2, 0x3d, 0x9c, 0x1c, 0xe3, 0x3d, 0x47, 0x38, 0x63, 0xbc,
  0xe4, 0x71, 0xd8, 0xbd, 0x4b, 0xed, 0x55, 0xbd, 0xbb, 0x19, 0x5c, 0x3d,
  0x3b, 0xbf, 0xa8, 0xbd, 0xf9, 0x11, 0xe7, 0xbd, 0xe2, 0x35, 0xe5, 0x3d,
  0x83, 0xed, 0xb1, 0x3d, 0x00, 0x95, 0x86, 0xbd, 0x29, 0x89, 0xbb, 0xbd,
  0x69, 0xdc, 0x3e, 0x3e, 0xe5, 0xec, 0x2d, 0xbe, 0x94, 0x1d, 0xad, 0x3c,
  0x17, 0x96, 0x11, 0xbe, 0xa8, 0xb9, 0x1d, 0x3d, 0x13, 0x6f, 0x31, 0xbd,
  0x16, 0xf4, 0x65, 0xbd, 0x8b, 0x97, 0x0d, 0xbd, 0xaf, 0x21, 0x19, 0xbb,
  0xf5, 0xe2, 0x0c, 0x3d, 0x67, 0x1e, 0xdc, 0x3a, 0x9e, 0x96, 0x07, 0xbe,
  0xc2, 0xc2, 0x33, 0xbe, 0x15, 0xeb, 0x16, 0x3e, 0x21, 0xc8, 0x4f, 0x3d,
  0xa7, 0x62, 0x55, 0xba, 0x6d, 0xcd, 0x30, 0x3e, 0x6a, 0x22, 0xed, 0x3d,
  0x40, 0x0e, 0x3c, 0xbe, 0xb9, 0x21, 0x54, 0x3e, 0x38, 0xe2, 0x9f, 0xbd,
  0x70, 0x0d, 0x1f, 0x3d, 0x77, 0x27, 0x19, 0x3e, 0xdd, 0x49, 0x16, 0xbe,
  0x9f, 0x5c, 0x49, 0x3e, 0xdf, 0xca, 0x67, 0xbd, 0x33, 0x5d, 0xd6, 0x3d,
  0x2b, 0xbc, 0x43, 0x3d, 0xd7, 0x54, 0x15, 0xbd, 0xd9, 0xee, 0x92, 0xbd,
  0x0f, 0xf7, 0x12, 0xbd, 0xc6, 0x5d, 0x13, 0xbe, 0x72, 0x05, 0x12, 0x3e,
  0x9f, 0xa0, 0x4b, 0x3e, 0xc6, 0xf4, 0x2b, 0xbe, 0x44, 0xd4, 0xb6, 0xbd,
  0x52, 0x65, 0x61, 0x3e, 0xa8, 0x51, 0x69, 0x3e, 0x4e, 0xc2, 0x8a, 0x3d,
  0xdd, 0xa6, 0x3b, 0x3d, 0xd2, 0x5d, 0xd6, 0xbd, 0x01, 0x5d, 0x75, 0xbb,
  0x6e, 0xac, 0xfb, 0x39, 0xc1, 0xd1, 0x1d, 0x3e, 0x8f, 0x5b, 0x81, 0x3d,
  0xd3, 0x47, 0x4f, 0xbe, 0x57, 0x1d, 0x85, 0x3e, 0xd1, 0x70, 0xb0, 0x3d,
  0x0f, 0xa1, 0xf2, 0x3c, 0x3b, 0x53, 0xd8, 0xbc, 0x32, 0xa2, 0x4f, 0x3e,
  0x5e, 0xe4, 0x2b, 0x3e, 0xa7, 0x29, 0xa5, 0xbc, 0xcd, 0xbb, 0x05, 0xbd,
  0x79, 0x1f, 0x0d, 0xbe, 0xc8, 0x42, 0x2b, 0xbe, 0xc0, 0xfe, 0xa2, 0xbd,
  0x7a, 0x3e, 0x97, 0x3d, 0xa2, 0x13, 0xe8, 0x3b, 0x58, 0xd7, 0x42, 0x3c,
  0x2c, 0xa1, 0xed, 0xbd, 0xb1, 0x59, 0x99, 0xbd, 0x4b, 0x70, 0x5a, 0x3e,
  0x9f, 0xef, 0x08, 0xbe, 0xec, 0xb8, 0xb5, 0x3a, 0xf0, 0x35, 0xd8, 0xbc,
  0xd9, 0x35, 0x71, 0xbd, 0x2a, 0xdf, 0xbe, 0x3d, 0xa6, 0xc8, 0xd3, 0xbd,
  0x9e, 0xb1, 0x3d, 0x3d, 0x8e, 0x65, 0x77, 0x3c, 0x42, 0x34, 0x62, 0x3d,
  0x91, 0xef, 0x5f, 0xbb, 0x46, 0x1a, 0x31, 0x3e, 0x6a, 0xc0, 0x70, 0xbc,
  0x56, 0x60, 0x9d, 0xbd, 0xcb, 0x0a, 0xe7, 0xbd, 0xa4, 0xdb, 0x2d, 0xbe,
  0x16, 0xec, 0x21, 0xbe, 0x73, 0xc5, 0x0d, 0xbe, 0xc4, 0x0a, 0xec, 0x3d,
  0x20, 0xfa, 0x38, 0x3e, 0xd3, 0x9c, 0x6c, 0x3c, 0x18, 0x7c, 0xf7, 0x3d,
  0x58, 0xcc, 0x1a, 0x3e, 0xa7, 0x71, 0xec, 0x3d, 0xfd, 0x96, 0xb8, 0x3d,
  0x5f, 0xc6, 0x41, 0xbe, 0x76, 0x94, 0xee, 0xbd, 0x55, 0x07, 0x20, 0x3e,
  0xcc, 0x24, 0x02, 0x3a, 0xa8, 0x43, 0x1b, 0x3e, 0x31, 0x85, 0x46, 0xbe,
  0x03, 0x4b, 0x82, 0x3d, 0x44, 0xbf, 0x8f, 0x3d, 0xe0, 0x73, 0x26, 0x3e,
  0xe9, 0x57, 0x18, 0xbe, 0xb7, 0xcd, 0x0d, 0xbd, 0xa2, 0x51, 0xd8, 0xbd,
  0x63, 0xdd, 0xd6, 0x3d, 0xff, 0x62, 0x3f, 0x3e, 0x29, 0x79, 0x0f, 0x3e,
  0x70, 0xfb, 0xd0, 0xbd, 0x84, 0x85, 0x1f, 0x3e, 0x71, 0xa4, 0x24, 0xbe,
  0xfc, 0xd0, 0xe4, 0xbd, 0x24, 0x02, 0x1b, 0x3e, 0x0a, 0x8f, 0xc3, 0x3d,
  0x0b, 0x63, 0xf8, 0x3b, 0xdf, 0xc6, 0x20, 0x3e, 0xbd, 0x36, 0x64, 0x3e,
  0x4f, 0x6a, 0xa9, 0xbc, 0x85, 0x39, 0xc9, 0x3d, 0xa9, 0xbf, 0x32, 0x3d,
  0x24, 0x14, 0xdd, 0x3d, 0x0d, 0xfd, 0xca, 0xbc, 0xe2, 0x55, 0x1c, 0xbe,
  0x1a, 0x55, 0xca, 0x3d, 0x46, 0xd2, 0x47, 0xbd, 0xa1, 0x49, 0x6c, 0x3d,
  0x42, 0x36, 0xc8, 0x3c, 0x50, 0xb9, 0x22, 0x3e, 0xaf, 0x28, 0x03, 0x3e,
  0x7a, 0xa9, 0x1f, 0xbe, 0x9b, 0x3a, 0x0d, 0x3e, 0x35, 0x34, 0x4f, 0xbe,
  0xef, 0x8d, 0x5e, 0xbc, 0x2e, 0x5f, 0xfa, 0x3d, 0x14, 0xc8, 0x16, 0x3e,
  0x4c, 0xe3, 0x97, 0x3d, 0x4e, 0x9a, 0xc4, 0xbc, 0x85, 0xfc, 0x8a, 0xbd,
  0xe0, 0xf7, 0xd8, 0xbd, 0x4c, 0x0c, 0xae, 0xbd, 0x5a, 0x03, 0x4b, 0x3d,
  0x64, 0xee, 0x53, 0xbd, 0x15, 0x97, 0x6e, 0xbd, 0xec, 0xd3, 0xec, 0x3d,
  0xce, 0x60, 0x94, 0xbd, 0x0a, 0x34, 0x36, 0xbe, 0x04, 0xee, 0xf7, 0x3b,
  0x38, 0x76, 0x1d, 0xbd, 0x64, 0xf3, 0x20, 0x3c, 0x5e, 0x7c, 0x13, 0xbd,
  0xcb, 0x8d, 0xff, 0xbd, 0x38, 0x5e, 0x53, 0xbe, 0x48, 0x09, 0x4c, 0xbc,
  0x82, 0x00, 0x94, 0xbd, 0x16, 0x96, 0x52, 0xbe, 0xc8, 0x1b, 0xd1, 0x3d,
  0x6c, 0x8b, 0xb7, 0x3d, 0x9f, 0xdf, 0xe8, 0x3d, 0xfc, 0x46, 0xe5, 0xbd,
  0xf0, 0x21, 0x04, 0xbe, 0x23, 0x37, 0x70, 0x3d, 0xd2, 0xc9, 0x8d, 0xbd,
  0x07, 0x73, 0x1e, 0x3e, 0x17, 0x8e, 0x56, 0x3d, 0xb6, 0x49, 0x86, 0x3d,
  0x93, 0xb5, 0x14, 0x3e, 0x9e, 0x8f, 0xb4, 0x3d, 0x33, 0x0f, 0x62, 0xbd,
  0x39, 0x47, 0x4c, 0xbe, 0x07, 0x75, 0x0d, 0xbe, 0x39, 0x7e, 0x30, 0xbe,
  0x17, 0x80, 0x3d, 0xbd, 0xc4, 0x2b, 0xa5, 0xbd, 0xbe, 0x43, 0x3a, 0x3c,
  0xe8, 0x14, 0x0b, 0x3e, 0xf4, 0x9c, 0x79, 0x3d, 0x3a, 0x40, 0xf4, 0xbd,
  0x4f, 0x55, 0x30, 0xbe, 0x88, 0x0a, 0xde, 0xbc, 0x38, 0xa1, 0x4c, 0xbe,
  0xbc, 0x59, 0x4a, 0xbe, 0x18, 0xaf, 0x06, 0x3e, 0xd1, 0x1f, 0xe9, 0x3d,
  0x12, 0xd8, 0xe7, 0x3d, 0x7e, 0x5d, 0x36, 0x3d, 0x7c, 0x90, 0x4a, 0x3e,
  0x56, 0x5a, 0xaa, 0xbc, 0xe7, 0x83, 0x0d, 0xbd, 0xe0, 0x01, 0xda, 0x3d,
  0x7f, 0x22, 0x84, 0xbc, 0xea, 0x6a, 0xc6, 0x3d, 0xb6, 0xde, 0x8c, 0x3d,
  0x55, 0x79, 0x0e, 0x3c, 0x65, 0x97, 0xa6, 0xbd, 0x4d, 0x9b, 0x43, 0x3e,
  0x4c, 0x21, 0xe5, 0xbd, 0xea, 0xea, 0x26, 0x3e, 0xb3, 0x58, 0x9c, 0xbd,
  0x90, 0x3b, 0x33, 0xbe, 0x96, 0x7a, 0xe2, 0xbd, 0x97, 0xde, 0x14, 0xbe,
  0xa7, 0xb0, 0x9a, 0xbd, 0x5c, 0x2f, 0xb7, 0x3b, 0x30, 0x47, 0x75, 0xbd,
  0x60, 0x8b, 0x9b, 0xbd, 0x68, 0x8f, 0x4d, 0xbd, 0x12, 0xf1, 0x45, 0xbe,
  0xff, 0x39, 0x86, 0x3d, 0x71, 0xa4, 0xb7, 0x3d, 0xe3, 0x99, 0x4a, 0xbc,
  0x73, 0x55, 0x98, 0xbc, 0x0c, 0x4f, 0x91, 0xbd, 0x49, 0x6b, 0x0d, 0x3e,
  0x7e, 0x52, 0x41, 0xbe, 0xb4, 0xed, 0xfd, 0x3d, 0x1f, 0xac, 0x00, 0x3e,
  0x79, 0xc1, 0xc9, 0x3d, 0x92, 0x94, 0x13, 0x3e, 0xfd, 0xa1, 0x73, 0x3d,
  0x29, 0x5e, 0xe8, 0xbd, 0x3e, 0x23, 0xaa, 0x3d, 0x45, 0xe1, 0x49, 0xbe,
  0x55, 0x05, 0x8d, 0xbc, 0xb3, 0x12, 0x79, 0x3d, 0xe1, 0xcf, 0x3a, 0x3d,
  0x67, 0xd7, 0x45, 0xbe, 0x6e, 0xb3, 0x0f, 0xbd, 0x3c, 0xf0, 0x49, 0x3e,
  0x97, 0x9a, 0x30, 0xbd, 0x47, 0xe4, 0x80, 0x3d, 0x97, 0x81, 0xf2, 0x3c,
  0x1d, 0x22, 0x0f, 0x3e, 0x83, 0x07, 0x00, 0xbe, 0x2b, 0x4b, 0x3f, 0x3e,
  0xfe, 0x6a, 0x49, 0xbd, 0xdc, 0x91, 0x90, 0x3b, 0xc1, 0xb9, 0x14, 0x3c,
  0xe7, 0x6b, 0xad, 0x3d, 0x18, 0x6d, 0x45, 0x3e, 0xdc, 0xff, 0xf7, 0x3d,
  0x67, 0x1a, 0x95, 0x3d, 0x46, 0x71, 0xfc, 0xbd, 0xab, 0x22, 0x3e, 0x3e,
  0xa1, 0x38, 0x0f, 0xbe, 0xac, 0xc5, 0x09, 0x3e, 0x92, 0x49, 0x82, 0xbd,
  0xc4, 0x61, 0x9d, 0xbd, 0x44, 0xd1, 0xa7, 0x3d, 0xb4, 0x7c, 0x27, 0xbe,
  0x7d, 0x45, 0x1d, 0xbe, 0x50, 0x04, 0xc9, 0x3d, 0x05, 0xeb, 0xfb, 0xbd,
  0x0c, 0xb0, 0x0c, 0xbe, 0x2d, 0x71, 0x3d, 0x3e, 0x76, 0xfe, 0xa9, 0xbc,
  0xdb, 0x1a, 0x10, 0xbe, 0x54, 0x5d, 0x05, 0x3d, 0x6d, 0xde, 0x15, 0x3c,
  0xdb, 0xfa, 0xef, 0xbd, 0x0b, 0x2d, 0x5e, 0xbd, 0xdd, 0x16, 0x1f, 0x3d,
  0x16, 0x3c, 0x2e, 0xbe, 0x63, 0x76, 0x06, 0x3d, 0xc2, 0x8a, 0xc4, 0x3d,
  0x04, 0xec, 0xb6, 0xbd, 0x66, 0x22, 0x30, 0x3e, 0xbb, 0xbc, 0xa6, 0xbd,
  0xcc, 0x20, 0xe8, 0x3d, 0x9b, 0x90, 0xf8, 0xbd, 0x15, 0xf5, 0x30, 0xbd,
  0x49, 0xdd, 0xb0, 0xbd, 0xe6, 0xb3, 0xbc, 0xbd, 0x7c, 0x2d, 0x3b, 0xbe,
  0x95, 0xcc, 0x18, 0x3e, 0xf5, 0xf7, 0x2d, 0xbe, 0x0b, 0x77, 0xbc, 0x3d,
  0x8c, 0xab, 0xe7, 0xbd, 0x39, 0xb5, 0x56, 0x3e, 0x36, 0x6c, 0x01, 0x3e,
  0x0b, 0x63, 0x1c, 0xbe, 0x3d, 0x68, 0xfc, 0x3d, 0x3b, 0x7e, 0x4c, 0xbe,
  0xfa, 0x9c, 0x93, 0x3d, 0x16, 0xf7, 0xae, 0xbc, 0xae, 0x1e, 0x0c, 0xbe,
  0x7b, 0x49, 0xba, 0x3d, 0xbb, 0xfb, 0xd4, 0x3d, 0x87, 0x94, 0x38, 0xbe,
  0x31, 0x1b, 0x5d, 0x3d, 0x2d, 0xe0, 0xc5, 0x3c, 0x70, 0x74, 0x69, 0x3e,
  0x59, 0x37, 0xf0, 0xbd, 0x94, 0x85, 0x80, 0xbd, 0x86, 0xbe, 0x2e, 0x3d,
  0xfb, 0x89, 0x4a, 0xbe, 0x18, 0x87, 0x9f, 0x3d, 0x50, 0x21, 0x4e, 0xbe,
  0x3e, 0x9b, 0x04, 0xbe, 0x1b, 0xd2, 0x1c, 0xbe, 0x2f, 0xee, 0x3b, 0xbe,
  0xfe, 0x49, 0x37, 0xbe, 0xca, 0x99, 0x1f, 0xbe, 0x0d, 0x86, 0x07, 0xbd,
  0x11, 0x16, 0x46, 0x3e, 0xe6, 0xdf, 0xd1, 0x3d, 0x95, 0xef, 0x11, 0xbe,
  0x77, 0x6a, 0x16, 0x3e, 0x76, 0x3a, 0x32, 0xbd, 0x31, 0x27, 0x50, 0x3d,
  0xb8, 0x4a, 0x4d, 0x3e, 0x04, 0x47, 0xf9, 0x3d, 0x5a, 0x30, 0x58, 0x3e,
  0x08, 0x5e, 0x17, 0xbe, 0x6c, 0x76, 0x12, 0xbe, 0x22, 0xd3, 0xc6, 0xbc,
  0x6f, 0xaa, 0xf7, 0x3d, 0xd3, 0xa7, 0x04, 0x3e, 0x28, 0x59, 0x8c, 0xbc,
  0xae, 0x8e, 0x44, 0xbe, 0x25, 0xfd, 0xfc, 0x3d, 0xf0, 0x9b, 0xad, 0x3d,
  0x86, 0x2d, 0x01, 0xbc, 0xd6, 0x83, 0xbb, 0xbc, 0x3f, 0xf0, 0x1b, 0x3e,
  0x96, 0x29, 0x30, 0xbd, 0xd4, 0x99, 0x31, 0x3e, 0x89, 0x0d, 0x2a, 0xbe,
  0x65, 0x23, 0xbe, 0xbb, 0xfd, 0x2b, 0x34, 0xbe, 0x25, 0x1a, 0xa3, 0xbd,
  0x55, 0x27, 0xed, 0x3c, 0x54, 0x59, 0x90, 0x3d, 0xce, 0x1e, 0xcf, 0x3d,
  0xd2, 0xde, 0x33, 0x3e, 0xf4, 0x2e, 0xd1, 0x3d, 0x9b, 0x70, 0xb2, 0x3d,
  0xd8, 0x78, 0x35, 0xbe, 0xc7, 0xd3, 0xaf, 0xbd, 0x71, 0x20, 0xcf, 0x3d,
  0x84, 0x57, 0x75, 0xbd, 0x92, 0xfa, 0xa2, 0x3d, 0x5c, 0x4f, 0x1d, 0x3d,
  0x35, 0xdb, 0xd3, 0xbc, 0xf1, 0x1d, 0xd6, 0x3d, 0xf6, 0xc3, 0x42, 0xbd,
  0xe0, 0xa1, 0x80, 0xbc, 0x3b, 0xf4, 0x26, 0xbd, 0x85, 0x36, 0x4d, 0xbe,
  0xa1, 0x39, 0x2d, 0xbe, 0x19, 0x55, 0x14, 0x3e, 0x25, 0x86, 0x80, 0xbd,
  0x36, 0x84, 0x2d, 0xbe, 0x43, 0x30, 0x08, 0x3d, 0x68, 0x31, 0xd2, 0xbd,
  0xee, 0xe7, 0x43, 0xbe, 0x34, 0x6d, 0x4b, 0xbe, 0x71, 0x75, 0x0a, 0x3c,
  0x12, 0x98, 0xda, 0x3d, 0xcb, 0x5f, 0x7b, 0x3d, 0x33, 0x0b, 0x37, 0x3e,
  0x14, 0x79, 0x2e, 0x3b, 0x38, 0x6a, 0x19, 0x3e, 0x68, 0x03, 0xe6, 0xbd,
  0x96, 0xda, 0x06, 0x3e, 0xa1, 0x90, 0x4f, 0xbd, 0xe0, 0x65, 0x5c, 0x3e,
  0x4c, 0xf8, 0x52, 0xbe, 0x52, 0xf4, 0x53, 0xbd, 0xe4, 0x7d, 0x3d, 0xbe,
  0x28, 0x9b, 0x0f, 0xbe, 0x6b, 0xf0, 0x0b, 0x3d, 0x1b, 0x26, 0x36, 0xbe,
  0xd1, 0x00, 0x53, 0x3e, 0xc9, 0x69, 0x2f, 0x3e, 0xe1, 0x1e, 0xe3, 0xbd,
  0x43, 0x2d, 0xb1, 0xbd, 0x67, 0x13, 0xb2, 0x3c, 0x36, 0x3e, 0x3f, 0x3e,
  0x79, 0x6b, 0x21, 0xbe, 0x01, 0x6c, 0x6f, 0xbd, 0x7f, 0x4f, 0x2f, 0xbd,
  0x1e, 0x31, 0x90, 0x3d, 0xf7, 0x05, 0x5b, 0x3d, 0x8c, 0x13, 0x38, 0x3d,
  0xe7, 0xc2, 0x48, 0xbe, 0x23, 0x45, 0x89, 0x3d, 0xd9, 0x9c, 0x04, 0xbe,
  0xa4, 0x34, 0xad, 0x3d, 0x12, 0x2e, 0x64, 0x3e, 0x3f, 0x36, 0x0e, 0x3e,
  0x41, 0xbc, 0x62, 0x3c, 0x32, 0xa9, 0x3b, 0x3e, 0xc5, 0xcd, 0x91, 0x3d,
  0xef, 0x50, 0x25, 0xbe, 0xde, 0x8e, 0x18, 0x3e, 0x0e, 0x0c, 0xb3, 0xbd,
  0x3c, 0x7c, 0xde, 0x3d, 0x66, 0x42, 0x7e, 0xbd, 0xce, 0xd8, 0xf4, 0xbc,
  0x85, 0x49, 0x15, 0x3e, 0xdf, 0x46, 0x1a, 0x3e, 0xac, 0x9f, 0xcd, 0x3d,
  0x1e, 0xd2, 0x92, 0xbd, 0x40, 0xd1, 0xf3, 0x3d, 0x0e, 0xbc, 0xd5, 0xbd,
  0x6e, 0x2a, 0xb5, 0xbc, 0x7b, 0x61, 0xdc, 0x3d, 0xd9, 0x20, 0x68, 0x3d,
  0x7b, 0x00, 0xf9, 0x3c, 0x48, 0xd7, 0x9e, 0x3d, 0xb0, 0x82, 0xd9, 0x3d,
  0x5b, 0x53, 0x21, 0xbe, 0x28, 0x4a, 0x38, 0x3e, 0xbe, 0x69, 0xcf, 0x3d,
  0x2f, 0xc3, 0x3a, 0x3e, 0xa4, 0xe6, 0x6a, 0x3c, 0x33, 0x05, 0xe3, 0x3d,
  0xde, 0x01, 0x94, 0x3d, 0x38, 0x49, 0x64, 0x3e, 0x3a, 0x08, 0x21, 0x3e,
  0x2a, 0x42, 0x80, 0x3e, 0x0c, 0x94, 0x40, 0xbc, 0x57, 0xc2, 0xf6, 0xba,
  0xcb, 0x04, 0x77, 0x3c, 0x1b, 0x6d, 0x08, 0x3e, 0x60, 0x6b, 0x33, 0x3e,
  0x9e, 0x9a, 0x20, 0x3c, 0xeb, 0x22, 0x2d, 0xbe, 0xe0, 0x71, 0xe9, 0x3c,
  0xc4, 0x21, 0xb5, 0x3d, 0xe7, 0x4f, 0xd9, 0xbc, 0x49, 0x4e, 0xa0, 0x3d,
  0x76, 0x9a, 0xee, 0x3d, 0x4a, 0x09, 0xea, 0xbd, 0x9f, 0x6e, 0xf2, 0x3d,
  0xcf, 0xd1, 0xd7, 0xbd, 0x3c, 0xf6, 0xf0, 0xbd, 0xbf, 0xd3, 0x7f, 0xbc,
  0x3b, 0x98, 0xad, 0xbd, 0xa6, 0xb5, 0xfd, 0xbc, 0xc2, 0x1f, 0x0f, 0x3e,
  0xe8, 0x99, 0x19, 0x3e, 0x7f, 0x5c, 0xa7, 0x3d, 0x01, 0xd9, 0x02, 0xbd,
  0xf7, 0x8f, 0x04, 0x3e, 0x4b, 0x8a, 0x0d, 0xbe, 0x85, 0x09, 0x39, 0xbe,
  0xd4, 0xfb, 0x99, 0x3d, 0xc6, 0x1b, 0x6a, 0x3d, 0x0e, 0x1b, 0x51, 0xbb,
  0xdc, 0x9f, 0x27, 0xbe, 0xc4, 0x36, 0x89, 0x3c, 0xb9, 0x2d, 0x7d, 0xbc,
  0x7b, 0xe7, 0x12, 0x3e, 0x54, 0x5d, 0x9e, 0xbc, 0x93, 0x65, 0x3b, 0x3c,
  0x8d, 0x43, 0x3c, 0x3e, 0x59, 0x7f, 0x05, 0xbe, 0x4f, 0x45, 0x4f, 0xbd,
  0x27, 0x9f, 0x5c, 0x3e, 0xeb, 0xa1, 0xcc, 0xbc, 0xa7, 0xb1, 0x2e, 0xbe,
  0x46, 0x75, 0x2a, 0x3e, 0x9b, 0x5d, 0xc1, 0x3d, 0xa4, 0x5e, 0xc8, 0x3c,
  0x69, 0x92, 0xb7, 0x3b, 0xd4, 0x58, 0xa7, 0xbc, 0xa9, 0xc6, 0x90, 0xbc,
  0xec, 0x1a, 0xf3, 0xbd, 0xab, 0x76, 0x76, 0x3c, 0x70, 0x66, 0x1f, 0x3e,
  0x36, 0x24, 0xab, 0x3b, 0xee, 0x00, 0x4b, 0xbe, 0xcf, 0x48, 0x60, 0x3d,
  0x94, 0x89, 0x22, 0x3e, 0x1f, 0x73, 0x32, 0xbe, 0xe1, 0xb2, 0x0b, 0xbe,
  0xa6, 0x5f, 0xbb, 0xbd, 0x45, 0x64, 0xc0, 0xbc, 0x5b, 0xba, 0xc4, 0xbd,
  0x9d, 0x0c, 0x45, 0xbd, 0x93, 0xe3, 0x43, 0xbd, 0x97, 0x1e, 0x11, 0xbe,
  0x7c, 0x04, 0x55, 0x3e, 0xe1, 0x32, 0x0f, 0x3d, 0xba, 0x46, 0x0e, 0x3e,
  0x3c, 0xf5, 0x49, 0xbe, 0x18, 0x44, 0x4a, 0xbe, 0xb9, 0xca, 0x4f, 0xbe,
  0xef, 0xc2, 0x01, 0x3d, 0x5f, 0xaf, 0x6f, 0x3d, 0xbe, 0x7c, 0x17, 0x3c,
  0x1c, 0xa6, 0xed, 0xba, 0x91, 0xa7, 0x84, 0xbd, 0x86, 0x4e, 0xde, 0xbb,
  0xd8, 0x05, 0x39, 0x3e, 0xd2, 0x44, 0xa7, 0xbd, 0x29, 0xc7, 0xbd, 0x3c,
  0xc2, 0xc0, 0x1b, 0xbe, 0xb3, 0xc1, 0x01, 0x3e, 0x7c, 0xbc, 0x37, 0x3b,
  0x1d, 0x11, 0x1e, 0x3d, 0xf9, 0x48, 0x71, 0xbd, 0xd9, 0x24, 0x92, 0xbc,
  0x0d, 0xe7, 0x9c, 0xbd, 0xac, 0x46, 0x9c, 0xbd, 0x4f, 0xe3, 0xf8, 0x3d,
  0x9a, 0xba, 0x27, 0x3e, 0x68, 0xdf, 0x8c, 0x3d, 0x84, 0x1e, 0x78, 0xbd,
  0x79, 0x82, 0x3e, 0xbc, 0xa2, 0xbd, 0x41, 0x3b, 0x31, 0xc1, 0x96, 0xbc,
  0x2e, 0x18, 0x3a, 0x3e, 0x2d, 0x0e, 0xe6, 0xbd, 0x21, 0x25, 0xa7, 0xbb,
  0x14, 0xac, 0x4b, 0x3e, 0xe9, 0x18, 0x47, 0x3e, 0xd4, 0xf6, 0x3f, 0xbd,
  0x5a, 0x1f, 0x21, 0x3e, 0x2f, 0x7c, 0x4c, 0xbd, 0xfb, 0xeb, 0xe8, 0xbd,
  0x9d, 0xe3, 0x22, 0x3e, 0x27, 0x48, 0x0c, 0x3e, 0xe5, 0x87, 0x25, 0xbe,
  0x23, 0xb6, 0x01, 0xbe, 0x5b, 0x7e, 0x33, 0xbe, 0xe2, 0x51, 0x16, 0xbe,
  0x06, 0xde, 0xbc, 0xbd, 0x1d, 0x5b, 0xac, 0x3d, 0x10, 0xb3, 0xd1, 0x3d,
  0xee, 0xaa, 0xb4, 0x3d, 0x6e, 0xc3, 0xc9, 0x3d, 0xcb, 0x2d, 0xd3, 0xbd,
  0x5c, 0x3d, 0x14, 0x3e, 0x78, 0x83, 0x41, 0x3e, 0x95, 0xa8, 0x15, 0xbe,
  0x91, 0x00, 0x9f, 0xbd, 0xef, 0xbf, 0x81, 0x3d, 0x0b, 0xc9, 0xf1, 0xbd,
  0xb0, 0xca, 0x1b, 0xbe, 0xd6, 0x73, 0xd3, 0xbd, 0xa3, 0x33, 0x7b, 0x3c,
  0xbe, 0xa8, 0x4f, 0xbe, 0x17, 0x4f, 0x27, 0xbd, 0x25, 0x7b, 0x2a, 0x3e,
  0x07, 0xd2, 0xa4, 0x3d, 0x8a, 0x6d, 0x86, 0xbc, 0x2f, 0x6b, 0x87, 0xbd,
  0xee, 0x14, 0x24, 0xbe, 0x91, 0x1e, 0x48, 0xbe, 0x24, 0x95, 0xea, 0xbd,
  0xb4, 0x21, 0x83, 0xbd, 0x1c, 0x33, 0x59, 0xbd, 0x92, 0x29, 0xf8, 0xbc,
  0x02, 0x96, 0xfa, 0xbd, 0x06, 0x06, 0x22, 0x3e, 0xc3, 0xab, 0x43, 0xbe,
  0xe5, 0x3e, 0xfc, 0x3d, 0x99, 0x2d, 0x33, 0x3c, 0x3b, 0xca, 0x06, 0x3e,
  0xa8, 0x07, 0x0c, 0xbe, 0xc1, 0xd6, 0x46, 0x3d, 0x6e, 0x62, 0x14, 0x3e,
  0x95, 0xd7, 0x08, 0xbe, 0x59, 0x36, 0x5b, 0x3d, 0x4b, 0xb8, 0x4a, 0xbd,
  0x4c, 0x32, 0xef, 0xbd, 0x56, 0xf1, 0xd9, 0xbc, 0xb3, 0x97, 0xc1, 0x3d,
  0x07, 0x96, 0x4a, 0x3e, 0x48, 0x78, 0x87, 0x3e, 0x3a, 0x55, 0x2e, 0x3e,
  0x24, 0x2b, 0x05, 0x3e, 0xff, 0x9b, 0x3c, 0xbe, 0xfe, 0x6c, 0x0c, 0xbe,
  0xde, 0x4b, 0x28, 0x3e, 0xd8, 0x67, 0x33, 0xbb, 0x64, 0x2b, 0xad, 0xbd,
  0x9c, 0xa3, 0x30, 0xbe, 0x85, 0x11, 0x63, 0x3e, 0x50, 0xf2, 0x06, 0x3e,
  0xed, 0x98, 0x8b, 0x3c, 0x64, 0xed, 0x9f, 0xbd, 0xc7, 0x7f, 0x97, 0x3d,
  0x2d, 0xd1, 0xce, 0xbd, 0xa9, 0xe7, 0xa8, 0x3d, 0xa4, 0x27, 0x40, 0x3d,
  0x02, 0x16, 0xb0, 0xbd, 0xdd, 0xd8, 0xd6, 0x3c, 0x73, 0x56, 0x14, 0xbe,
  0x59, 0xf8, 0x06, 0xbe, 0xbd, 0x15, 0x4e, 0x3e, 0xe2, 0x98, 0x38, 0xbe,
  0x10, 0x4b, 0x02, 0xbe, 0x30, 0x76, 0x32, 0x3e, 0x70, 0x04, 0x6d, 0x3e,
  0x0f, 0x51, 0xba, 0xbc, 0xcc, 0xaf, 0x2e, 0x3c, 0xac, 0x9f, 0xc9, 0x3d,
  0x7a, 0x45, 0x12, 0x3d, 0x20, 0x3b, 0xc4, 0xbd, 0x1e, 0x9f, 0x5c, 0x3d,
  0x05, 0x8b, 0xe1, 0x3e, 0x11, 0xcd, 0xfe, 0x3d, 0xd0, 0xee, 0x80, 0x3e,
  0x4d, 0x6c, 0x06, 0xbe, 0x4d, 0x5e, 0xe5, 0x3d, 0x5b, 0x4c, 0xb6, 0x3d,
  0x63, 0xaf, 0xf7, 0x3d, 0x59, 0x33, 0x93, 0xbd, 0xb5, 0x17, 0x6c, 0xbc,
  0xc7, 0xd3, 0x58, 0x3e, 0x34, 0x5e, 0x69, 0xbd, 0x5a, 0x45, 0x0c, 0xbe,
  0x7e, 0x2c, 0xeb, 0xbd, 0x05, 0x8d, 0xff, 0xbd, 0x31, 0x58, 0x65, 0x3e,
  0xcf, 0x74, 0x57, 0xbe, 0x8b, 0x72, 0x9a, 0x3d, 0x4b, 0x96, 0x40, 0x3e,
  0xa8, 0x3c, 0x37, 0xbe, 0xca, 0x36, 0x17, 0xbe, 0x57, 0xe8, 0x1c, 0xbd,
  0xf3, 0xc9, 0x3a, 0xbd, 0xcb, 0xb6, 0xae, 0xbd, 0x5f, 0x36, 0x98, 0x3d,
  0xdf, 0x69, 0x29, 0x3e, 0x47, 0xbd, 0xbc, 0xbd, 0x0d, 0xc3, 0xa6, 0xbb,
  0xc8, 0xef, 0x07, 0xbe, 0x7a, 0x12, 0x28, 0x3e, 0xe7, 0xce, 0xd7, 0x3d,
  0x1b, 0x91, 0xf3, 0x3d, 0xdf, 0x67, 0x15, 0xbe, 0x86, 0x3f, 0xa5, 0x3d,
  0xac, 0xbb, 0xca, 0xbd, 0xab, 0x9c, 0x41, 0xbd, 0xe2, 0x2f, 0x52, 0xbe,
  0xe9, 0xf3, 0x11, 0x3d, 0x20, 0x93, 0x11, 0xbe, 0x6d, 0x53, 0x2d, 0x3e,
  0x22, 0x0f, 0x74, 0x3e, 0x12, 0x27, 0xd0, 0x3c, 0x46, 0x3d, 0x53, 0x3e,
  0x37, 0x00, 0x0c, 0xbd, 0x17, 0xa9, 0x4a, 0xbe, 0x09, 0x99, 0x5e, 0x3d,
  0xdc, 0x0f, 0x29, 0xbe, 0x6b, 0x0d, 0x34, 0x3e, 0x13, 0xcd, 0x07, 0x3e,
  0xe2, 0x4c, 0x81, 0x3d, 0x23, 0x53, 0x2b, 0x3e, 0x08, 0x82, 0x19, 0xbe,
  0x52, 0x78, 0x81, 0x3e, 0x59, 0x3c, 0x00, 0x3e, 0xb1, 0x5f, 0xd2, 0x3d,
  0x11, 0x61, 0x51, 0x3e, 0x87, 0xb6, 0xd3, 0x3d, 0xc9, 0xdf, 0x95, 0xbd,
  0x6b, 0xa8, 0x30, 0x3d, 0xf0, 0xbd, 0x88, 0x3c, 0xcf, 0xf0, 0x01, 0x3d,
  0xeb, 0x1e, 0x47, 0xbe, 0x7d, 0xa5, 0xa4, 0xbd, 0xfe, 0xd2, 0x07, 0xbe,
  0xb5, 0x4b, 0x45, 0x3e, 0x7a, 0x2b, 0x54, 0xbe, 0xb3, 0x4c, 0xd4, 0xbd,
  0xa0, 0x62, 0x2f, 0xbd, 0xe2, 0xf7, 0x0f, 0x3e, 0x9f, 0x79, 0xd0, 0x3c,
  0x88, 0x5b, 0x44, 0xbe, 0x56, 0xd9, 0xf1, 0x3c, 0x42, 0xdb, 0xcb, 0xbd,
  0xb5, 0xdf, 0xc3, 0xbd, 0x4d, 0x73, 0x5c, 0xbe, 0x0b, 0x00, 0xab, 0xbc,
  0x66, 0xf0, 0xa8, 0x3d, 0xc7, 0x7d, 0x2a, 0xbc, 0x1e, 0xd8, 0x4b, 0xbd,
  0x03, 0xe8, 0x0a, 0x3e, 0x30, 0xf1, 0x2d, 0x3e, 0x4b, 0x34, 0x47, 0xbd,
  0xbd, 0x54, 0x12, 0x3e, 0xfe, 0x70, 0x84, 0x3c, 0x6b, 0x4c, 0x1c, 0x3e,
  0xba, 0x9a, 0x43, 0x3e, 0xe1, 0xa7, 0x35, 0x3e, 0xcd, 0xdd, 0xac, 0xbd,
  0x1b, 0xf4, 0x4e, 0x3e, 0xeb, 0x5b, 0xe8, 0x3d, 0xe4, 0xc9, 0xbe, 0x3d,
  0x6e, 0x81, 0x68, 0xbc, 0xa9, 0x55, 0x84, 0x3d, 0xf6, 0xab, 0xc5, 0x3d,
  0xee, 0x3a, 0x18, 0xbe, 0x06, 0xad, 0xfe, 0xbd, 0xf8, 0xfa, 0x45, 0x3e,
  0xf6, 0x71, 0x94, 0x3d, 0xc6, 0x17, 0x96, 0xbd, 0xc2, 0xfb, 0x88, 0xbd,
  0x1e, 0x46, 0xb7, 0xbd, 0x66, 0x97, 0x2d, 0xbe, 0xef, 0xc2, 0x0b, 0xbe,
  0x78, 0xde, 0x1e, 0xbe, 0x8f, 0x31, 0x69, 0x3b, 0x32, 0xd0, 0xeb, 0xbd,
  0x10, 0xd0, 0xf5, 0xbd, 0xaa, 0xc7, 0x39, 0x3e, 0x38, 0x11, 0x45, 0x3d,
  0x03, 0x79, 0x33, 0x3e, 0x4a, 0xa2, 0xd6, 0x3d, 0xbb, 0xf3, 0xf3, 0x3d,
  0x79, 0x3e, 0x14, 0x3e, 0x26, 0x32, 0xdf, 0x3c, 0x57, 0x74, 0x64, 0xbb,
  0x83, 0xa5, 0x82, 0x3e, 0x68, 0x4a, 0x17, 0x3e, 0x09, 0x89, 0x41, 0xbe,
  0xfc, 0xae, 0x1d, 0x3e, 0xbc, 0xb5, 0x04, 0x3e, 0x4b, 0xfe, 0xa7, 0xbc,
  0x88, 0x74, 0xc0, 0x3d, 0x04, 0xe1, 0xe2, 0x3c, 0xd6, 0x1d, 0xfe, 0xbd,
  0x82, 0xe4, 0xcb, 0xbc, 0x7e, 0x1b, 0x3f, 0x3e, 0x24, 0x49, 0x35, 0xbe,
  0xcf, 0x7c, 0x84, 0xbd, 0xb4, 0x3b, 0x1b, 0x3e, 0x38, 0x29, 0x0a, 0x3e,
  0x61, 0x0b, 0xf8, 0xbd, 0xf2, 0xd9, 0x6c, 0xbd, 0xc7, 0x8e, 0xb4, 0x3d,
  0xc2, 0x69, 0xed, 0x3d, 0x4f, 0xfa, 0x54, 0xbe, 0x75, 0x4e, 0x28, 0xbd,
  0xd9, 0xdd, 0x34, 0xbd, 0x71, 0xb8, 0x3c, 0x3e, 0x93, 0x71, 0xcc, 0xbd,
  0x15, 0x39, 0x00, 0x3e, 0xf9, 0x00, 0xd5, 0xbc, 0x13, 0x9d, 0xc8, 0xbd,
  0x23, 0x54, 0xa1, 0xbc, 0x33, 0xe2, 0xb6, 0xba, 0xe1, 0x4e, 0x2f, 0xbd,
  0x10, 0xaa, 0xe6, 0x3d, 0xfe, 0x4f, 0xee, 0x3d, 0x9a, 0x41, 0xb2, 0xbc,
  0x03, 0x95, 0xad, 0xbd, 0xed, 0xf0, 0x7a, 0xbd, 0x8e, 0x92, 0x29, 0xbe,
  0xc1, 0xf8, 0x27, 0x3e, 0xad, 0x59, 0x20, 0x3e, 0x38, 0xc5, 0x35, 0xbe,
  0xe6, 0xbf, 0xdb, 0xbd, 0xf6, 0x23, 0x4a, 0xbe, 0x17, 0x32, 0x13, 0xbe,
  0xa5, 0x0c, 0x20, 0x3c, 0x95, 0x18, 0xcf, 0x3c, 0x38, 0x97, 0x12, 0x3e,
  0x37, 0xf9, 0xa9, 0xbd, 0xf6, 0x0a, 0x61, 0x3e, 0x2e, 0x64, 0x1b, 0x3e,
  0xc6, 0xbe, 0x07, 0xbe, 0x5d, 0x8f, 0x3a, 0xbe, 0x48, 0xba, 0xe5, 0x3d,
  0xd6, 0x09, 0x22, 0xbe, 0xff, 0x60, 0xc4, 0xbb, 0x6c, 0x76, 0x01, 0x3e,
  0xa3, 0x2a, 0x07, 0x3e, 0x92, 0x50, 0x95, 0x3d, 0x2e, 0x1c, 0x48, 0xbd,
  0xc1, 0xcd, 0xeb, 0x3d, 0xe3, 0xbf, 0x63, 0x3d, 0x86, 0x8e, 0x45, 0xbd,
  0x8d, 0xb6, 0x0f, 0xbe, 0xe4, 0x2b, 0x41, 0xbd, 0xe9, 0xf0, 0xf2, 0xbd,
  0x33, 0x05, 0xff, 0x3d, 0xc3, 0x69, 0xe4, 0x3d, 0x1c, 0xcb, 0x29, 0xbe,
  0xfc, 0xeb, 0xb3, 0xbd, 0x79, 0xf7, 0xa6, 0x3d, 0x21, 0x9a, 0x67, 0x3c,
  0xc0, 0x17, 0x1d, 0xbe, 0x11, 0x2a, 0x00, 0xbe, 0x73, 0x29, 0xdb, 0x3d,
  0xe8, 0xec, 0xf7, 0xbd, 0x2f, 0x5b, 0x9e, 0xbd, 0x13, 0xeb, 0xce, 0x3c,
  0xbb, 0x26, 0xe9, 0x3d, 0x4a, 0x2b, 0x56, 0xbe, 0x00, 0x1c, 0xe7, 0xbd,
  0xe3, 0x36, 0x12, 0x3e, 0x9b, 0x00, 0x1d, 0x3d, 0x75, 0x19, 0x61, 0x3c,
  0x10, 0x8d, 0xca, 0x3d, 0xa3, 0x9c, 0x7a, 0xbd, 0x0d, 0x11, 0x8d, 0xbd,
  0x43, 0x19, 0x18, 0x3e, 0x04, 0x9f, 0x8b, 0xbd, 0xb3, 0x2b, 0xe6, 0xbd,
  0xca, 0x45, 0x98, 0xbd, 0x2c, 0x0d, 0x21, 0xbd, 0x48, 0x0d, 0xe2, 0xbc,
  0x32, 0xcb, 0x3c, 0xbd, 0xf8, 0x34, 0x47, 0x3e, 0xdc, 0x81, 0x23, 0xbe,
  0x5d, 0x03, 0x38, 0xbe, 0x4f, 0x0c, 0x89, 0x3c, 0x48, 0x5b, 0x93, 0xbd,
  0xd2, 0x88, 0xb4, 0x3d, 0x2a, 0x02, 0xf4, 0xbb, 0x9c, 0x86, 0x4a, 0xbe,
  0xfb, 0x7b, 0xec, 0xbc, 0x76, 0xd4, 0xc7, 0xbd, 0x19, 0x87, 0x04, 0x3e,
  0x3d, 0x6b, 0x95, 0xbd, 0x20, 0x0d, 0x67, 0x3d, 0xb9, 0xf9, 0x0a, 0x3e,
  0x98, 0x7f, 0x3e, 0xbe, 0xbe, 0xd5, 0x31, 0xbe, 0x85, 0x2a, 0x6c, 0x3d,
  0x00, 0x49, 0x4c, 0xbe, 0x1a, 0x18, 0x32, 0xbe, 0x3c, 0x9a, 0xbd, 0xbd,
  0x15, 0xfa, 0xcb, 0x3d, 0xf7, 0x06, 0x31, 0xbd, 0x35, 0x32, 0x71, 0xbd,
  0xbf, 0xf5, 0xe4, 0x3d, 0xe4, 0x31, 0x1a, 0x3e, 0xa1, 0x86, 0x0d, 0xbe,
  0x48, 0x27, 0x8b, 0xbb, 0x77, 0xa8, 0x56, 0xbc, 0x71, 0xc8, 0x85, 0x3c,
  0xf2, 0x63, 0x23, 0xbe, 0x34, 0x0c, 0x0d, 0x3e, 0xe8, 0x90, 0xe8, 0x3d,
  0x02, 0x52, 0xd5, 0x3d, 0x75, 0x5d, 0xb2, 0x3c, 0x6e, 0xda, 0xf2, 0x3d,
  0x8b, 0x75, 0x24, 0x3e, 0x26, 0x08, 0x4a, 0xbd, 0x5f, 0x2d, 0x4e, 0x3d,
  0xd2, 0x3d, 0x57, 0xbe, 0x93, 0x20, 0x67, 0xbd, 0x08, 0xde, 0x0f, 0x3e,
  0x21, 0x94, 0xef, 0x3d, 0x4f, 0x00, 0xa8, 0x3b, 0xf4, 0x8a, 0x14, 0x3e,
  0x7e, 0x21, 0x2f, 0x3e, 0x5c, 0x53, 0x15, 0xbe, 0xa0, 0xbd, 0x47, 0xbe,
  0x79, 0xc6, 0x2a, 0x3d, 0xc7, 0x70, 0x40, 0xbd, 0xf9, 0xde, 0xc8, 0x3d,
  0xd3, 0xaf, 0x04, 0x3e, 0x59, 0x87, 0x1a, 0xbe, 0xd0, 0x97, 0x52, 0xbc,
  0xc7, 0x91, 0x1c, 0x3e, 0x0c, 0x61, 0x3a, 0x3e, 0xcd, 0xc0, 0xff, 0x3d,
  0x10, 0x25, 0xfb, 0x3d, 0x72, 0x03, 0x39, 0x3d, 0xd8, 0x0c, 0xbd, 0x3d,
  0x47, 0x25, 0x09, 0xbd, 0x2b, 0x18, 0x24, 0xbe, 0xa4, 0x9a, 0x23, 0x3d,
  0x2c, 0xdf, 0xba, 0x3d, 0xf6, 0x03, 0xd1, 0x3d, 0xd3, 0x09, 0xe0, 0xbc,
  0xbe, 0x3a, 0x0f, 0xbe, 0x59, 0x71, 0x0f, 0xbe, 0x8f, 0x68, 0x18, 0xbd,
  0xe3, 0xdb, 0x90, 0x3c, 0xa2, 0x39, 0xf5, 0x3c, 0x69, 0xcb, 0xbd, 0x3d,
  0x58, 0x32, 0xd1, 0x3d, 0xf1, 0xdb, 0xeb, 0x3a, 0x3c, 0x93, 0x18, 0x3e,
  0xed, 0x10, 0x53, 0xbd, 0x50, 0x43, 0xe2, 0xbb, 0xd7, 0x64, 0x16, 0xbe,
  0x8f, 0xb8, 0x1e, 0x3e, 0x8b, 0xa1, 0x3e, 0xbe, 0xb8, 0x80, 0x8b, 0xbd,
  0xcd, 0x32, 0x78, 0x3a, 0xfe, 0xe9, 0xe7, 0xbc, 0xe9, 0x9f, 0x1e, 0xbe,
  0x01, 0xd8, 0x1a, 0xbe, 0x3f, 0x48, 0x7d, 0x3d, 0x15, 0xa1, 0x1e, 0x3b,
  0x7a, 0x01, 0xe0, 0xbc, 0x0c, 0xf5, 0x2e, 0x3e, 0x6b, 0x2e, 0x75, 0x3d,
  0x32, 0xeb, 0x2f, 0xbc, 0xba, 0xd3, 0xba, 0xbd, 0xf7, 0x1c, 0x00, 0xbd,
  0x9b, 0x92, 0x19, 0xbb, 0x5b, 0xee, 0x26, 0x3e, 0x9a, 0xbd, 0x0c, 0xbe,
  0x99, 0x0e, 0x11, 0x3d, 0x3e, 0x03, 0x91, 0x3a, 0x9c, 0x9a, 0x2f, 0x3e,
  0x89, 0x93, 0xbf, 0xbd, 0xbe, 0xb7, 0x34, 0xbe, 0x0c, 0xff, 0xbb, 0x3d,
  0x64, 0xda, 0x2b, 0x3d, 0x71, 0xd9, 0x45, 0x3c, 0x3b, 0x40, 0xd5, 0xbd,
  0xe3, 0x08, 0x68, 0xbd, 0x1e, 0xe9, 0x08, 0x3d, 0x92, 0x8e, 0xfb, 0xbc,
  0xcd, 0xa2, 0xb5, 0x3d, 0xef, 0xb6, 0x32, 0x3d, 0x94, 0xea, 0xcb, 0xbd,
  0xaf, 0xc7, 0x39, 0x3e, 0x53, 0x94, 0x52, 0xbd, 0x9d, 0xf5, 0xc6, 0xbd,
  0x6a, 0xa8, 0xaf, 0xbc, 0xf9, 0x39, 0xc1, 0xbd, 0xaf, 0x92, 0x31, 0x3e,
  0x34, 0x42, 0xc4, 0xbd, 0x53, 0xa3, 0x4a, 0xbc, 0x8a, 0x1f, 0x85, 0xbc,
  0x85, 0xbd, 0xa3, 0xbd, 0xa6, 0x0b, 0x5a, 0xbd, 0xa4, 0x2b, 0x72, 0xb9,
  0xd2, 0xb6, 0x06, 0x3e, 0x00, 0xc3, 0x0d, 0x3e, 0xc8, 0xdb, 0xc1, 0xbd,
  0x5a, 0xd2, 0xeb, 0xbd, 0x64, 0x38, 0x95, 0xbc, 0x04, 0xde, 0x0f, 0xbe,
  0x9f, 0x49, 0x1c, 0xbe, 0x0e, 0x89, 0xdd, 0xbd, 0xba, 0x3e, 0x0f, 0x3d,
  0xba, 0xd6, 0xfb, 0xbd, 0xbc, 0x9d, 0x40, 0x3e, 0x59, 0x6d, 0x40, 0xbc,
  0x3c, 0xa1, 0x99, 0xbd, 0xd2, 0x22, 0x54, 0x3e, 0x0f, 0xed, 0x63, 0xbd,
  0x66, 0x13, 0x12, 0xbe, 0x19, 0x0b, 0x34, 0x3e, 0x64, 0x33, 0xfb, 0x3d,
  0xba, 0x65, 0x89, 0xbc, 0x51, 0xcd, 0xaa, 0xbd, 0xd2, 0x33, 0x01, 0x3d,
  0x24, 0xc6, 0x0e, 0x3e, 0x75, 0xf3, 0x4b, 0x3e, 0x1b, 0x4a, 0xa6, 0x3d,
  0xbd, 0x51, 0x78, 0x3d, 0xbd, 0x82, 0xbf, 0xb9, 0x90, 0x15, 0x25, 0x3e,
  0x8f, 0xad, 0xa1, 0x3d, 0x11, 0x79, 0x10, 0xbe, 0x3c, 0xe1, 0xe6, 0x3c,
  0xf6, 0xd2, 0x97, 0x3d, 0xe4, 0xf4, 0xd6, 0xbd, 0x5b, 0x1d, 0x46, 0xbd,
  0x9b, 0xe2, 0x38, 0xbe, 0xf8, 0xac, 0xdf, 0x3d, 0x17, 0x18, 0x46, 0x3c,
  0x85, 0xca, 0x39, 0xbe, 0xe7, 0xfd, 0xf2, 0x3d, 0xa7, 0x50, 0x9d, 0xbc,
  0xb3, 0x30, 0x18, 0xbe, 0xe0, 0x2d, 0x39, 0xbe, 0xa8, 0x15, 0x4e, 0x3c,
  0x6f, 0x89, 0xed, 0x3d, 0x7b, 0xb0, 0xe2, 0x3d, 0x2b, 0x15, 0xdc, 0xbd,
  0xb1, 0x06, 0xf1, 0x3d, 0xf8, 0xf8, 0x44, 0xbc, 0xc0, 0x33, 0x35, 0xbe,
  0xf9, 0xb7, 0x4b, 0xbe, 0x64, 0x62, 0xdc, 0x3d, 0x44, 0x47, 0x2c, 0x3e,
  0xd7, 0x60, 0x30, 0xbe, 0x7f, 0x59, 0x41, 0xbe, 0x96, 0xbd, 0x73, 0xbc,
  0xa0, 0xce, 0xf1, 0xbd, 0x59, 0x0b, 0xcc, 0x3d, 0xb5, 0x2c, 0x53, 0x3e,
  0x96, 0xbd, 0x29, 0x3e, 0xec, 0x4d, 0xf1, 0xbb, 0x30, 0xcb, 0x02, 0x3e,
  0x2a, 0xba, 0xe4, 0x3d, 0x64, 0x7f, 0x2b, 0xbe, 0xdd, 0xf0, 0xed, 0x3b,
  0x32, 0x0a, 0x3f, 0x3e, 0x20, 0xd9, 0x3a, 0xbe, 0xaa, 0xa6, 0x1d, 0xbe,
  0x6c, 0xa6, 0x94, 0xbd, 0x0c, 0xce, 0xd0, 0xbd, 0xe3, 0xf0, 0xea, 0x3d,
  0xcf, 0x24, 0xf9, 0x3d, 0xf3, 0x37, 0x25, 0xbe, 0xd7, 0xb1, 0x05, 0xbe,
  0x6a, 0xf4, 0x1f, 0x3e, 0x03, 0x51, 0x78, 0x3e, 0xaa, 0x56, 0xd1, 0x3d,
  0x3b, 0x58, 0x05, 0x3d, 0x4e, 0x46, 0x9b, 0x3d, 0x13, 0xec, 0x1d, 0xbe,
  0xbf, 0xdc, 0x21, 0x3e, 0xd2, 0x8a, 0x07, 0xbe, 0x2e, 0x67, 0x22, 0x3e,
  0x35, 0xc8, 0x86, 0xbc, 0x05, 0x89, 0x0c, 0x3e, 0xc1, 0x23, 0x1e, 0x3e,
  0xe6, 0x44, 0xe2, 0xbb, 0x6c, 0x91, 0x7d, 0x3e, 0xf7, 0xb4, 0x4f, 0xbe,
  0x27, 0x2f, 0x8b, 0xbd, 0x6c, 0x5b, 0x14, 0xba, 0x5f, 0xa1, 0x09, 0x3e,
  0xa5, 0x05, 0x04, 0x3e, 0xa9, 0xc3, 0x81, 0xbd, 0x38, 0xda, 0x05, 0x3e,
  0xfa, 0xe5, 0xf4, 0xbd, 0x70, 0xda, 0xb0, 0xbc, 0xc2, 0xf7, 0x53, 0xbd,
  0x1f, 0xed, 0x82, 0x3e, 0x0c, 0xc8, 0x58, 0x3c, 0xe9, 0x3e, 0xd3, 0xbc,
  0x70, 0x26, 0x0b, 0xbe, 0xe4, 0xc5, 0xac, 0xbd, 0x01, 0x00, 0x12, 0xbc,
  0xac, 0xb0, 0x2d, 0x3d, 0x18, 0x63, 0x85, 0xbd, 0xf0, 0x01, 0x90, 0xbd,
  0xc8, 0x8e, 0x5b, 0x3e, 0xce, 0x56, 0x5b, 0x3d, 0xc9, 0x1d, 0xe3, 0xbd,
  0xd2, 0x76, 0xda, 0x3d, 0x84, 0xa1, 0x4a, 0x3d, 0xcc, 0xeb, 0x15, 0xbe,
  0x12, 0xe3, 0xb1, 0xbd, 0x8f, 0x47, 0x8f, 0x3e, 0x20, 0xf0, 0x9e, 0x3d,
  0x08, 0x0d, 0x03, 0xbd, 0xb6, 0x94, 0xe8, 0x3d, 0xc3, 0x9a, 0xb4, 0xbc,
  0x67, 0x36, 0x94, 0x3d, 0x68, 0xb8, 0x08, 0xbe, 0xdc, 0x3b, 0x3d, 0x3e,
  0xd8, 0x62, 0x95, 0x3d, 0xc1, 0x3a, 0x07, 0x3d, 0xc1, 0xa0, 0xfd, 0xbb,
  0xbd, 0xd4, 0xd6, 0x3d, 0xc1, 0xa0, 0x1b, 0xbe, 0x8b, 0x5d, 0x17, 0x3e,
  0x75, 0xfd, 0xdd, 0x3b, 0x0f, 0xd6, 0xa3, 0xbd, 0xce, 0x4c, 0x35, 0x3d,
  0x08, 0x1f, 0x07, 0xbe, 0xe6, 0xb2, 0x11, 0xbe, 0x16, 0xdb, 0x30, 0xbe,
  0x71, 0xf6, 0xf1, 0x3c, 0xb5, 0x40, 0x1e, 0x3e, 0x85, 0x9d, 0x79, 0xbc,
  0xb7, 0xf7, 0x80, 0xbc, 0xe6, 0xe5, 0x08, 0xbd, 0x2b, 0x54, 0x46, 0xbe,
  0xe5, 0x30, 0x79, 0x3d, 0x49, 0x65, 0x13, 0x3e, 0xf9, 0xb6, 0xa0, 0xbd,
  0x0a, 0xb7, 0x38, 0xbe, 0x74, 0x7d, 0x09, 0xbe, 0x4d, 0x71, 0xc3, 0xbc,
  0x40, 0x88, 0x89, 0x3e, 0x91, 0x8e, 0xa7, 0x3d, 0x9c, 0x57, 0x4d, 0x3e,
  0x76, 0xb3, 0x2f, 0xbe, 0xba, 0x40, 0x61, 0x3d, 0x6a, 0xd6, 0x30, 0xbd,
  0x46, 0x98, 0x10, 0xbe, 0x5c, 0x44, 0x43, 0xbd, 0xb0, 0xdd, 0x03, 0xbe,
  0xd9, 0x63, 0x48, 0xbd, 0x4e, 0x62, 0x31, 0xbe, 0xc1, 0xf1, 0x28, 0xbe,
  0x93, 0xf8, 0xe3, 0xbd, 0xbb, 0xd8, 0x16, 0xbe, 0x76, 0x22, 0x0b, 0x3e,
  0x0c, 0x2c, 0x97, 0x3d, 0x24, 0x56, 0x29, 0x3e, 0xc7, 0x69, 0x4a, 0x3e,
  0xc5, 0x6c, 0xed, 0x3d, 0x3c, 0xd4, 0xd6, 0x3c, 0x49, 0x51, 0xba, 0xbd,
  0x42, 0x6c, 0x93, 0xbd, 0xba, 0x8d, 0x88, 0x3c, 0x9c, 0x41, 0xb5, 0x3d,
  0x7d, 0x2d, 0xb6, 0xbc, 0xe2, 0xc8, 0x5c, 0xbd, 0x17, 0x93, 0x36, 0x3d,
  0xd1, 0xd6, 0x2c, 0xbe, 0xb8, 0x81, 0xeb, 0xbd, 0xb5, 0xfb, 0x1e, 0x3c,
  0x63, 0x68, 0x19, 0xbe, 0x70, 0x82, 0x41, 0x3e, 0x69, 0xf3, 0x88, 0x3e,
  0x6a, 0x35, 0xe1, 0x3d, 0x89, 0x4a, 0x20, 0x3e, 0x1a, 0x5b, 0x80, 0xbd,
  0xbf, 0x73, 0x13, 0xbe, 0xb9, 0xfd, 0x56, 0xbe, 0xa6, 0x00, 0x34, 0x3e,
  0x83, 0x5c, 0x0f, 0xbd, 0x32, 0xdb, 0x54, 0x3c, 0xfc, 0x6f, 0x73, 0xbd,
  0x1c, 0x32, 0xba, 0xbc, 0x09, 0xbd, 0x34, 0xbe, 0x2f, 0x50, 0xc2, 0xbd,
  0x47, 0x43, 0xac, 0xbd, 0x2e, 0x5e, 0xe0, 0x3a, 0x33, 0x95, 0xe0, 0xbd,
  0xda, 0x48, 0xbd, 0x3d, 0x3b, 0x3c, 0xd5, 0x3d, 0x57, 0x2c, 0x3d, 0xbd,
  0xcb, 0x4c, 0x6a, 0xbd, 0x84, 0xf7, 0xce, 0xbc, 0x5d, 0x46, 0x16, 0x3e,
  0xd0, 0x9c, 0xab, 0x3d, 0xe1, 0xb7, 0xe4, 0xbc, 0x9b, 0x55, 0x30, 0xbe,
  0x48, 0xca, 0x26, 0xbe, 0xde, 0xc8, 0x05, 0x3e, 0x23, 0xe8, 0xdb, 0x3c,
  0x0c, 0x1b, 0xbe, 0xbd, 0x01, 0x1c, 0xf3, 0xbd, 0x5f, 0xb9, 0xfc, 0x3d,
  0xdf, 0xd1, 0x23, 0xbe, 0x5e, 0x76, 0xc9, 0xbc, 0x3d, 0xd1, 0x30, 0xbd,
  0x39, 0xad, 0x3b, 0xbe, 0x0c, 0xb9, 0x55, 0x3d, 0x5b, 0x00, 0xfc, 0xbd,
  0xfc, 0x4b, 0x5f, 0xbe, 0x98, 0xfe, 0x2d, 0xbe, 0xb4, 0x2d, 0x73, 0x3d,
  0x3f, 0x7c, 0x3f, 0xbe, 0x96, 0xff, 0x67, 0x3c, 0xc3, 0x45, 0xd0, 0x3d,
  0x2d, 0x8c, 0x03, 0xbd, 0xca, 0xdd, 0x0e, 0x3e, 0x13, 0x88, 0x2b, 0x3d,
  0x28, 0xed, 0x26, 0x3d, 0xb0, 0xea, 0x2f, 0x3e, 0xbd, 0x7c, 0x07, 0x3d,
  0x17, 0xe2, 0x14, 0x3e, 0x49, 0xc0, 0x1a, 0xbe, 0xbb, 0xe4, 0xf7, 0xbd,
  0x1e, 0xc5, 0x8e, 0x3d, 0xda, 0x13, 0x1e, 0x3e, 0xab, 0x83, 0x21, 0xbe,
  0xfa, 0xde, 0x3e, 0x3e, 0xba, 0x33, 0x98, 0xbd, 0x87, 0x83, 0x53, 0x3a,
  0xa2, 0xac, 0xd4, 0x3d, 0xfd, 0xa9, 0x39, 0xbe, 0xc7, 0xa6, 0x11, 0x3e,
  0x21, 0xdd, 0x3b, 0xbe, 0xc4, 0x1a, 0x35, 0x3e, 0xbf, 0x69, 0xb8, 0x3d,
  0x66, 0xdb, 0x60, 0x3e, 0x27, 0x1d, 0x2a, 0xbe, 0x65, 0x4d, 0x9a, 0xbc,
  0xa5, 0x57, 0x04, 0xbe, 0x87, 0x72, 0xfe, 0x3c, 0x56, 0x2a, 0x27, 0xbc,
  0x34, 0x4b, 0x09, 0xbe, 0x53, 0x0d, 0x7a, 0x3d, 0xe8, 0xd5, 0x30, 0xbe,
  0x20, 0x8b, 0x51, 0xbe, 0x7a, 0x28, 0x95, 0xbd, 0x05, 0xa6, 0x43, 0x3d,
  0xf4, 0x6c, 0x33, 0x3e, 0x1d, 0x6d, 0xdc, 0xbd, 0xea, 0xb8, 0xbf, 0xbd,
  0x44, 0x77, 0xac, 0xbd, 0x60, 0x3d, 0xf3, 0x3d, 0x94, 0x6f, 0x54, 0xbc,
  0xd6, 0xd3, 0xa7, 0xbd, 0xe5, 0x24, 0x46, 0xbe, 0x0c, 0xe3, 0x46, 0xbe,
  0x30, 0xf3, 0xfe, 0xbd, 0xf1, 0x82, 0x02, 0xbe, 0xd7, 0xdf, 0x4f, 0x3d,
  0x95, 0x88, 0xa2, 0xbd, 0xa7, 0xdb, 0xc7, 0x3d, 0x45, 0x79, 0xd3, 0x3d,
  0x5c, 0xda, 0x4c, 0x3d, 0x87, 0xd3, 0xdc, 0xbd, 0x89, 0x78, 0x34, 0x3e,
  0x54, 0x03, 0xb2, 0x3d, 0xdd, 0xa8, 0x53, 0xbc, 0xc5, 0x0d, 0xc3, 0x3c,
  0x3e, 0xf7, 0x34, 0xbe, 0x64, 0xed, 0x4f, 0xbe, 0x32, 0x97, 0x9e, 0xbd,
  0x6a, 0xbb, 0x52, 0x3e, 0xaf, 0x1c, 0xd8, 0x3c, 0x40, 0x73, 0x42, 0x3e,
  0x56, 0x67, 0x1f, 0x3e, 0x7e, 0xfd, 0x61, 0x3e, 0x20, 0xff, 0x0d, 0xbe,
  0x64, 0x1c, 0x0e, 0x3d, 0x66, 0x3d, 0x06, 0x3e, 0xcc, 0xb8, 0x3f, 0x3d,
  0x19, 0xdc, 0xa8, 0x3d, 0xc3, 0x15, 0x4e, 0xbb, 0x62, 0x2c, 0xe4, 0x3d,
  0xd9, 0xe4, 0x36, 0xbe, 0xde, 0xbc, 0xc8, 0x3d, 0xab, 0xd1, 0x9e, 0xbd,
  0xfc, 0xb1, 0xf1, 0xbd, 0x0c, 0xfc, 0x39, 0xbe, 0x5f, 0x66, 0xa6, 0xbc,
  0x19, 0x86, 0xb7, 0xbd, 0xcf, 0x3a, 0x06, 0xbe, 0x0e, 0x46, 0x6a, 0x3e,
  0x7c, 0x20, 0x10, 0x3e, 0xa7, 0xcd, 0x1c, 0xbd, 0x27, 0xd8, 0x3e, 0x3e,
  0xd1, 0x45, 0xec, 0xbd, 0xd6, 0x71, 0x32, 0x3e, 0xe1, 0xb3, 0x45, 0xbe,
  0xb9, 0xb1, 0x02, 0xbe, 0xcf, 0x66, 0x0d, 0xbe, 0xa1, 0xb5, 0xcd, 0xbd,
  0x5a, 0xa3, 0xcf, 0xbc, 0xe6, 0x7b, 0x01, 0x3e, 0xab, 0x50, 0xce, 0xbd,
  0xf7, 0x4f, 0x74, 0x3e, 0x88, 0xf3, 0x7e, 0xbd, 0x5a, 0x28, 0x4c, 0xbd,
  0x01, 0xaa, 0xd7, 0x3d, 0x64, 0x38, 0x18, 0xbd, 0xc0, 0x0c, 0x10, 0xbd,
  0xf5, 0x6c, 0x67, 0x3e, 0x29, 0x1d, 0xef, 0xbd, 0x74, 0x56, 0x89, 0xbc,
  0xfa, 0x21, 0xba, 0x3d, 0x6e, 0xdc, 0x46, 0x3d, 0x20, 0x62, 0x41, 0x3e,
  0xe2, 0xad, 0x12, 0x3e, 0x78, 0x9c, 0x75, 0x3e, 0x69, 0x95, 0xea, 0x3d,
  0x21, 0x95, 0xc6, 0xbd, 0xe7, 0x74, 0x4f, 0x3d, 0x15, 0x3f, 0xf7, 0xbc,
  0x6c, 0xa8, 0xea, 0x3d, 0x81, 0x8a, 0x63, 0xbc, 0x6b, 0x03, 0x46, 0x3e,
  0x89, 0xd5, 0xcf, 0xbd, 0x10, 0x2b, 0x86, 0xbc, 0xaf, 0xce, 0x1b, 0x3e,
  0x3c, 0x7a, 0x12, 0xbe, 0x49, 0xb4, 0x24, 0x3e, 0x03, 0xdf, 0x09, 0x3e,
  0x59, 0xda, 0x61, 0xbd, 0xc1, 0x30, 0x05, 0xbe, 0x5e, 0xbf, 0xfd, 0x3d,
  0x2d, 0x6d, 0xae, 0xbd, 0x2a, 0x2c, 0x31, 0x3e, 0xc5, 0x5a, 0x5e, 0x3d,
  0xc6, 0xdf, 0x0b, 0xbe, 0x04, 0xa4, 0x01, 0x3e, 0x34, 0x04, 0xfe, 0xbd,
  0xeb, 0x18, 0x86, 0x3e, 0xcb, 0xbb, 0x1c, 0x3d, 0xd0, 0x59, 0x54, 0xbd,
  0x2d, 0x2f, 0xb4, 0x3d, 0x60, 0xef, 0xcf, 0xbd, 0x79, 0xec, 0x24, 0xbe,
  0xf0, 0x2c, 0x14, 0x3e, 0x4a, 0xa3, 0x4f, 0xbe, 0xe3, 0x47, 0x52, 0x3e,
  0x0b, 0x7a, 0x0d, 0x3c, 0x29, 0x1e, 0x28, 0xbe, 0x03, 0x34, 0xe1, 0xbd,
  0x77, 0x91, 0x2c, 0x3e, 0x4a, 0x03, 0x06, 0xbe, 0x2f, 0x42, 0x5b, 0x3e,
  0xcb, 0x51, 0xbd, 0xbd, 0x54, 0xdc, 0xde, 0x3d, 0x02, 0x83, 0x32, 0x3e,
  0x7c, 0x32, 0x48, 0x3e, 0x4c, 0xdb, 0xa1, 0x3d, 0x46, 0x9e, 0x21, 0x3e,
  0x83, 0x7d, 0x87, 0xbc, 0x0f, 0xa7, 0xf2, 0xbd, 0xb3, 0x8d, 0xb7, 0xbd,
  0x07, 0x4c, 0xba, 0xbd, 0xe0, 0x4a, 0x04, 0xbd, 0x68, 0xc2, 0xbf, 0x3d,
  0x28, 0x77, 0x52, 0x3d, 0x75, 0xb4, 0x99, 0xbd, 0xe3, 0xfd, 0x20, 0xbd,
  0x1d, 0xfb, 0x53, 0x3e, 0x5f, 0x2c, 0x1e, 0x3e, 0x93, 0xee, 0x30, 0x3e,
  0x57, 0x4a, 0xb6, 0x3b, 0xd4, 0x29, 0x88, 0x3d, 0xe9, 0x78, 0x05, 0xbe,
  0xb9, 0xbf, 0x96, 0x3d, 0xb2, 0xd1, 0x16, 0xbe, 0xf7, 0x74, 0x4e, 0x3d,
  0x66, 0x99, 0xab, 0xbd, 0xc8, 0x81, 0x0a, 0x3e, 0xa0, 0x26, 0x22, 0x3e,
  0xcf, 0xa8, 0x19, 0xbe, 0xb4, 0xef, 0x16, 0x3e, 0xdf, 0x53, 0x8b, 0x3e,
  0x4b, 0x19, 0x75, 0xbb, 0x80, 0xa5, 0x76, 0x3e, 0xd9, 0x24, 0xfc, 0x3d,
  0x72, 0xa5, 0xe9, 0x3d, 0x13, 0x7b, 0xd2, 0xbd, 0xfd, 0x81, 0x84, 0x3e,
  0x5d, 0x36, 0x33, 0x3e, 0x2a, 0x27, 0x80, 0xbd, 0xe1, 0xc2, 0x2b, 0x3e,
  0xf2, 0xf0, 0xd7, 0x3d, 0x45, 0xd6, 0x3a, 0xbe, 0x1d, 0xac, 0xda, 0xbd,
  0x5a, 0x7e, 0x79, 0x3e, 0x14, 0xca, 0x3d, 0x3e, 0x4e, 0xb9, 0x33, 0xbe,
  0xdd, 0xd6, 0x06, 0xbe, 0x1f, 0x5f, 0x1d, 0xbe, 0xe5, 0x51, 0x33, 0x3e,
  0xa4, 0x5c, 0xf4, 0xbd, 0xca, 0x49, 0x88, 0x3e, 0x51, 0xbd, 0x26, 0xbe,
  0x16, 0x94, 0x8e, 0x3c, 0x34, 0xa2, 0x52, 0x3d, 0xae, 0x69, 0x18, 0xbe,
  0x11, 0x36, 0x32, 0x3e, 0xc7, 0xc8, 0x26, 0x3e, 0x85, 0xa7, 0x53, 0xbe,
  0xe8, 0x43, 0x43, 0x3c, 0xe1, 0x47, 0xee, 0xbd, 0xf7, 0x64, 0xaf, 0x3b,
  0xc8, 0x3d, 0xfd, 0x3d, 0xd0, 0x2b, 0xb0, 0x3d, 0x01, 0x08, 0x96, 0x3b,
  0x4a, 0x36, 0x71, 0x3e, 0xaa, 0x3c, 0x94, 0x3e, 0x5a, 0xbe, 0xb9, 0x3e,
  0x31, 0xf2, 0x03, 0xbe, 0x0c, 0xa5, 0xa1, 0xbc, 0xa7, 0xd9, 0x4d, 0x3d,
  0x2b, 0xf2, 0x0c, 0x3d, 0xb6, 0x15, 0x4c, 0x3e, 0xbb, 0xf1, 0x3f, 0x3d,
  0x16, 0x2c, 0x05, 0x3e, 0x23, 0x0d, 0xae, 0xbd, 0xf9, 0x59, 0x37, 0x3e,
  0x91, 0xfe, 0x15, 0xbe, 0x25, 0x51, 0x14, 0xbe, 0x94, 0xae, 0x0b, 0x3e,
  0xc6, 0x96, 0x0b, 0xbd, 0x73, 0x4b, 0x5e, 0xbb, 0xa5, 0x52, 0xdf, 0xbd,
  0x6c, 0x5b, 0x9a, 0x3e, 0xca, 0x9c, 0x06, 0x3e, 0xd8, 0xbf, 0x4f, 0xbe,
  0x45, 0xb5, 0x15, 0x3e, 0xef, 0x08, 0x15, 0x3e, 0x76, 0x26, 0x82, 0x3d,
  0xe9, 0xd9, 0x75, 0x3d, 0x87, 0x09, 0xcb, 0x3c, 0xc8, 0x81, 0xff, 0x3c,
  0xd8, 0x37, 0x1d, 0x3e, 0x96, 0x0f, 0xe3, 0xbd, 0x7e, 0xb1, 0x1d, 0x3e,
  0x6f, 0x48, 0x16, 0x3e, 0x5f, 0xdb, 0x34, 0x3e, 0x47, 0x7c, 0xfc, 0x3d,
  0x8b, 0x41, 0x29, 0x3d, 0x15, 0xca, 0x06, 0x3e, 0x63, 0x11, 0xcb, 0xbd,
  0x09, 0x3d, 0x89, 0x3d, 0x35, 0x3a, 0x4d, 0x3e, 0xe0, 0x3b, 0x09, 0xbe,
  0x74, 0x8e, 0x90, 0xbd, 0x5d, 0xb8, 0x25, 0xbe, 0x75, 0x81, 0x96, 0xbd,
  0xd1, 0x33, 0x23, 0x3e, 0x4d, 0x83, 0x09, 0x3e, 0x86, 0xd7, 0x3b, 0xbe,
  0x31, 0x96, 0x7a, 0x3d, 0xc2, 0x0e, 0xa5, 0xbd, 0x36, 0xda, 0x08, 0xbe,
  0x78, 0x1c, 0x00, 0xbe, 0xbf, 0x51, 0x27, 0x3e, 0xd9, 0xb4, 0x46, 0x3e,
  0x31, 0x4d, 0x43, 0xbe, 0xfd, 0xd5, 0x3f, 0xbe, 0xd2, 0x0c, 0x36, 0x3e,
  0x27, 0x9b, 0xd3, 0xbc, 0x07, 0x18, 0xd5, 0xbb, 0xb9, 0x0c, 0x8b, 0x3d,
  0x34, 0xf8, 0x78, 0xbc, 0x73, 0x25, 0x34, 0xbd, 0x8a, 0xe3, 0xbe, 0x3d,
  0xd3, 0xe6, 0x38, 0xbe, 0xe8, 0x7c, 0x18, 0x3b, 0xa9, 0xba, 0x16, 0x3e,
  0x24, 0x71, 0x7d, 0x3d, 0x84, 0xec, 0x89, 0x3d, 0x31, 0xfe, 0x82, 0x3d,
  0x7b, 0xb5, 0xa1, 0x3e, 0x56, 0xdc, 0x3d, 0x3d, 0x98, 0x82, 0x82, 0x3d,
  0x16, 0xe9, 0xbd, 0xbd, 0x68, 0x0c, 0x61, 0x3e, 0xc9, 0x13, 0xbc, 0xbd,
  0x71, 0xfa, 0xb0, 0xbd, 0xb0, 0x85, 0xd9, 0x3d, 0xe1, 0xe4, 0xcc, 0xbd,
  0xdd, 0x0f, 0x3b, 0x3e, 0xbe, 0xa6, 0xff, 0xff, 0x10, 0x00, 0x00, 0x00,
  0x0c, 0x00, 0x00, 0x00, 0x1c, 0x00, 0x00, 0x00, 0x38, 0x00, 0x00, 0x00,
  0x04, 0x00, 0x00, 0x00, 0x10, 0x00, 0x00, 0x00, 0x03, 0x00, 0x00, 0x00,
  0x03, 0x00, 0x00, 0x00, 0x10, 0x00, 0x00, 0x00, 0x1a, 0x00, 0x00, 0x00,
  0x73, 0x65, 0x71, 0x75, 0x65, 0x6e, 0x74, 0x69, 0x61, 0x6c, 0x2f, 0x63,
  0x6f, 0x6e, 0x76, 0x32, 0x64, 0x5f, 0x32, 0x2f, 0x43, 0x6f, 0x6e, 0x76,
  0x32, 0x44, 0x00, 0x00, 0x34, 0xa6, 0xff, 0xff, 0x3e, 0xa7, 0xff, 0xff,
  0x04, 0x00, 0x00, 0x00, 0x00, 0x12, 0x00, 0x00, 0xbf, 0x74, 0xbb, 0xbc,
  0xc5, 0xc2, 0x02, 0x3e, 0x14, 0x1d, 0x47, 0x3d, 0x74, 0xe1, 0xb2, 0x3d,
  0xd9, 0xd0, 0x6d, 0x3e, 0xca, 0x54, 0x36, 0xbe, 0xe3, 0x96, 0xea, 0x3d,
  0x36, 0x37, 0x8e, 0xbd, 0x8d, 0x9a, 0x11, 0xbe, 0x0f, 0x86, 0x31, 0xbe,
  0x97, 0x56, 0x57, 0xba, 0x17, 0x98, 0x60, 0xbe, 0x54, 0x50, 0x37, 0x3c,
  0x22, 0x65, 0x52, 0xbe, 0xa2, 0xa1, 0x77, 0x3e, 0xac, 0x4c, 0x2e, 0xbe,
  0xb2, 0xfd, 0x2a, 0xbe, 0xce, 0xc0, 0x54, 0x3e, 0xc2, 0xe9, 0xb5, 0x3d,
  0x1f, 0xe3, 0xcc, 0xbd, 0xd2, 0xa1, 0x51, 0xbe, 0xab, 0xae, 0x5e, 0xbe,
  0x8a, 0x2c, 0x27, 0xbe, 0x26, 0x02, 0x8b, 0xbd, 0xca, 0xd6, 0x24, 0x3e,
  0x36, 0xf4, 0x19, 0x3e, 0xc8, 0x55, 0x24, 0x3d, 0xc7, 0xf6, 0x59, 0x3d,
  0xac, 0x3c, 0x38, 0x3d, 0x3f, 0x26, 0x61, 0xbe, 0x2a, 0xf6, 0x6d, 0x3e,
  0xf1, 0xc4, 0xae, 0xbd, 0x87, 0x12, 0xd2, 0xba, 0xe5, 0x71, 0x0b, 0x3e,
  0x5c, 0xb2, 0x27, 0x3d, 0x34, 0x72, 0x11, 0x3b, 0x14, 0x35, 0x52, 0x3e,
  0xd1, 0xe9, 0x56, 0xbe, 0x12, 0x4b, 0x93, 0x3d, 0x74, 0x57, 0x22, 0xbe,
  0x10, 0x7f, 0xf5, 0xbb, 0xb3, 0x6e, 0x80, 0xbd, 0x89, 0xa8, 0x7b, 0xbe,
  0xb4, 0xef, 0x8f, 0xbe, 0xd0, 0xe9, 0x68, 0xbd, 0x9b, 0xd5, 0xbc, 0xbd,
  0x33, 0x5a, 0x33, 0xbe, 0xf2, 0x58, 0x7a, 0xbe, 0x6a, 0x73, 0xb9, 0xbd,
  0x18, 0x8f, 0x11, 0x3e, 0x53, 0xdf, 0xb0, 0xbd, 0x4b, 0x66, 0x86, 0xbd,
  0x9c, 0xa3, 0x95, 0x3e, 0x0c, 0xe9, 0xfa, 0x3d, 0x09, 0x76, 0x55, 0xbe,
  0x39, 0xab, 0x88, 0xbd, 0xeb, 0x21, 0x4c, 0x3e, 0x16, 0xde, 0x48, 0xbe,
  0x2b, 0x77, 0x10, 0xbe, 0x09, 0xc2, 0x5d, 0xbe, 0x26, 0x93, 0xf1, 0x3c,
  0x68, 0x7b, 0x39, 0xbe, 0xc8, 0x49, 0xcd, 0xba, 0x60, 0x0f, 0xd9, 0xbd,
  0x9f, 0xf2, 0x18, 0x3e, 0xdd, 0x8b, 0x18, 0x3d, 0x1b, 0x2d, 0x86, 0xbe,
  0x3b, 0x3d, 0x2f, 0x3e, 0x7c, 0x64, 0x03, 0x3e, 0x0a, 0xfa, 0xfe, 0xbd,
  0x06, 0xa4, 0x5d, 0xbe, 0x9b, 0x71, 0xd3, 0x3d, 0x83, 0x9d, 0x4c, 0xbe,
  0x08, 0xcf, 0x08, 0xbe, 0x03, 0x3d, 0xec, 0x3d, 0xe6, 0x25, 0x0f, 0xbb,
  0x5a, 0xe3, 0xfa, 0xbd, 0x15, 0xe5, 0x5f, 0x3e, 0x66, 0x72, 0x01, 0x3e,
  0xa2, 0x58, 0x4d, 0x3e, 0xe4, 0x40, 0xdb, 0x3d, 0xab, 0x27, 0x72, 0x3e,
  0x37, 0xac, 0x94, 0xbe, 0xaf, 0x9b, 0x09, 0xbe, 0x72, 0xd0, 0xf3, 0x3b,
  0xad, 0x98, 0xcf, 0x3d, 0xd4, 0xd1, 0x5d, 0xbe, 0x41, 0x64, 0x66, 0xbc,
  0xda, 0x53, 0x83, 0x3e, 0x61, 0x0f, 0x91, 0xbe, 0xaf, 0xcc, 0x88, 0xbe,
  0x0c, 0x02, 0xf0, 0xbc, 0xd6, 0x17, 0xaa, 0xbb, 0x15, 0xae, 0x5b, 0xbd,
  0x85, 0xa6, 0x8b, 0xbe, 0x08, 0x0c, 0x65, 0xbe, 0x0b, 0xa6, 0xfa, 0xbd,
  0x6b, 0xe6, 0x82, 0xbe, 0xb0, 0x4f, 0x21, 0x3a, 0xc3, 0xb8, 0x56, 0xbe,
  0x30, 0x1b, 0xef, 0xbd, 0x1a, 0xb4, 0xa5, 0xbc, 0x50, 0x84, 0x69, 0x3e,
  0xe5, 0x54, 0x86, 0x3d, 0x4e, 0xb6, 0x98, 0xbe, 0x1e, 0x0d, 0x5f, 0x3e,
  0x97, 0x1a, 0xe9, 0xbd, 0xfd, 0x47, 0xf5, 0xbd, 0xdf, 0x8e, 0x94, 0xbe,
  0x92, 0xdb, 0x67, 0x3e, 0xfe, 0xfb, 0x69, 0xbe, 0x6e, 0xe3, 0x0e, 0x3e,
  0x52, 0x33, 0xdf, 0xbd, 0x29, 0x1b, 0x64, 0xbe, 0x33, 0xae, 0x90, 0x3e,
  0x87, 0xbe, 0x4c, 0x3e, 0xf2, 0x7f, 0xf6, 0xbd, 0x36, 0x14, 0x92, 0xbe,
  0x65, 0x47, 0x57, 0x3e, 0xb9, 0x01, 0x2d, 0xbe, 0xee, 0x83, 0x68, 0xbe,
  0xec, 0xff, 0x89, 0x3e, 0xcf, 0xe9, 0x4c, 0x3d, 0xc0, 0x12, 0x3f, 0xbe,
  0x10, 0xd1, 0xba, 0x3d, 0xde, 0xbc, 0x26, 0x3e, 0x33, 0xf3, 0x90, 0xbb,
  0x47, 0xbf, 0x89, 0x3e, 0x1d, 0x65, 0x6c, 0x3d, 0x4c, 0xda, 0x4c, 0x3e,
  0x1a, 0x8b, 0x81, 0x3e, 0x56, 0xb2, 0x21, 0x3e, 0x38, 0x33, 0x7c, 0xbe,
  0x78, 0xb7, 0x32, 0x3e, 0x24, 0xca, 0x89, 0xbe, 0x6b, 0x01, 0x30, 0x3e,
  0xc3, 0xce, 0x6b, 0x3e, 0x33, 0xd8, 0x35, 0x3e, 0x9e, 0x15, 0x78, 0xbe,
  0xf2, 0x8d, 0x06, 0x3e, 0xa1, 0xcb, 0x27, 0x3c, 0xf2, 0x2b, 0x57, 0xbe,
  0x23, 0x34, 0x89, 0xbe, 0xd0, 0x75, 0xd7, 0x3d, 0x94, 0x17, 0x06, 0xbe,
  0xbb, 0x8d, 0xad, 0xbd, 0x90, 0x29, 0x95, 0x3e, 0x6a, 0xe3, 0x5d, 0x3d,
  0x55, 0x3f, 0x0b, 0x3e, 0x36, 0xaa, 0xed, 0x3d, 0x69, 0x08, 0x8c, 0x3d,
  0xff, 0x02, 0x88, 0x3d, 0x64, 0xf7, 0x72, 0xbe, 0x23, 0x04, 0xf7, 0xbd,
  0x4a, 0xcc, 0x8f, 0xbe, 0x70, 0x03, 0xa9, 0xbd, 0x84, 0xc6, 0x5d, 0x3e,
  0xdf, 0x14, 0xa2, 0xbe, 0xef, 0x3e, 0x75, 0xbe, 0x40, 0x79, 0x1c, 0x3e,
  0xbc, 0x84, 0x73, 0x3e, 0x1f, 0x6f, 0x04, 0x3e, 0x20, 0x12, 0xec, 0x3d,
  0x1c, 0x7e, 0xcf, 0xbd, 0x40, 0x31, 0x26, 0xbd, 0xb3, 0x0d, 0x12, 0x3e,
  0x00, 0x9d, 0xbb, 0x3e, 0x59, 0xe7, 0x86, 0x3e, 0x87, 0xd6, 0x4b, 0x3e,
  0x6e, 0x09, 0xa7, 0xbd, 0x3e, 0xc3, 0x84, 0x3d, 0x21, 0x9d, 0x9f, 0xbd,
  0x5a, 0xef, 0x93, 0x3e, 0xf1, 0x9d, 0xf7, 0x3d, 0xfa, 0xf9, 0x90, 0x3e,
  0xc8, 0x2c, 0xd4, 0xbd, 0x6e, 0x68, 0x32, 0xbe, 0x23, 0x0f, 0xdf, 0x3d,
  0xf7, 0x4e, 0x55, 0x3e, 0xc5, 0x41, 0x28, 0x3e, 0x56, 0x38, 0x4b, 0x3d,
  0xb0, 0x4d, 0x61, 0x3e, 0x5c, 0xc3, 0xeb, 0x3c, 0xfd, 0xca, 0x0a, 0xbe,
  0xdc, 0xe9, 0xbd, 0x3d, 0x6b, 0x6a, 0x88, 0x3e, 0x0c, 0x82, 0x23, 0xbe,
  0x9f, 0x4c, 0xfb, 0xbd, 0xf6, 0x5d, 0xf6, 0xbd, 0x94, 0x6c, 0x36, 0x3d,
  0x5c, 0x80, 0xd8, 0x3d, 0xdf, 0x34, 0x91, 0xbd, 0xa6, 0xfb, 0x13, 0x3e,
  0xe3, 0x3a, 0xad, 0x3e, 0xbf, 0x8a, 0x46, 0xbe, 0x84, 0xfc, 0x06, 0x3e,
  0x45, 0x23, 0x70, 0x3e, 0xf5, 0x25, 0x65, 0x3e, 0x41, 0x79, 0xe0, 0x3d,
  0xfc, 0xca, 0x2a, 0x3e, 0xe9, 0x75, 0x83, 0x3e, 0xe6, 0x2a, 0xe0, 0x3d,
  0xef, 0x61, 0x8c, 0xbd, 0x40, 0x29, 0xa1, 0x3d, 0xb7, 0x00, 0x6b, 0x3d,
  0xe7, 0x1a, 0x56, 0xbc, 0x5a, 0xa0, 0x85, 0x3e, 0xf8, 0xa9, 0xd0, 0xbd,
  0x5d, 0xb9, 0x73, 0x3e, 0xc3, 0x86, 0x01, 0xbe, 0x3d, 0x51, 0x60, 0x3d,
  0xed, 0x41, 0x31, 0xbe, 0xb8, 0x3b, 0x0b, 0xbd, 0xf7, 0x9f, 0xac, 0xbc,
  0x57, 0x07, 0xc9, 0x3d, 0x9f, 0xc0, 0xc5, 0x3d, 0xb4, 0x80, 0xe9, 0xbd,
  0x70, 0x73, 0x7f, 0xbe, 0xe6, 0x49, 0xcc, 0xbd, 0xd5, 0xa9, 0x8e, 0xbe,
  0xd1, 0xfb, 0xba, 0xbc, 0xc3, 0x28, 0x34, 0xbe, 0x9b, 0x0f, 0x7f, 0x3e,
  0x0c, 0xcc, 0x99, 0x3d, 0x5f, 0x3f, 0x6a, 0x3d, 0x21, 0xab, 0x1e, 0xbe,
  0x70, 0x01, 0x39, 0x3e, 0x0b, 0x64, 0x6f, 0x3d, 0xc7, 0x6c, 0xb5, 0x3d,
  0x17, 0xcd, 0x84, 0xbd, 0x2d, 0x36, 0x83, 0xbe, 0x1a, 0xef, 0x17, 0x3e,
  0xb1, 0x0c, 0x88, 0xbd, 0x1c, 0xca, 0x4e, 0xbe, 0x49, 0xb7, 0x95, 0xbd,
  0xd9, 0x43, 0x6b, 0x3d, 0x95, 0x30, 0x08, 0x3e, 0x8e, 0xac, 0x6e, 0xbe,
  0x6d, 0x65, 0x72, 0x3e, 0x54, 0xde, 0x40, 0xbe, 0xa4, 0xe7, 0x7c, 0x3d,
  0x29, 0xed, 0xce, 0x3d, 0x30, 0x4b, 0x81, 0xbe, 0xee, 0x9f, 0x51, 0xbe,
  0x39, 0x54, 0x1b, 0xbe, 0x68, 0xa5, 0x8b, 0x3e, 0xa9, 0xb2, 0x5c, 0x3e,
  0x64, 0x07, 0x54, 0xbd, 0x95, 0x4f, 0x81, 0x3d, 0x32, 0x9e, 0xdf, 0x3d,
  0xf9, 0x6d, 0x2f, 0x3e, 0x8e, 0x94, 0x58, 0xbe, 0x7e, 0x24, 0xaf, 0x3d,
  0x99, 0x89, 0xae, 0xbd, 0x2b, 0x73, 0xd9, 0x3c, 0x84, 0x45, 0x2a, 0xbd,
  0xda, 0xe1, 0x4a, 0xbe, 0x1b, 0x34, 0x2a, 0xbe, 0x8f, 0x27, 0x0e, 0xbe,
  0x14, 0x93, 0xbf, 0xbd, 0x54, 0x18, 0xc7, 0x3d, 0x8c, 0xed, 0x2b, 0xbe,
  0x22, 0x9a, 0x8e, 0x3d, 0x78, 0x58, 0x69, 0x3e, 0xfb, 0xec, 0x4e, 0x3e,
  0x8a, 0xc7, 0x6f, 0xbe, 0xdd, 0xdd, 0x50, 0x3e, 0xca, 0xa9, 0x6b, 0xbe,
  0x35, 0x4e, 0x6c, 0x3d, 0xed, 0xf6, 0x2e, 0xbe, 0x3c, 0xac, 0xb3, 0x3d,
  0xc3, 0xd9, 0xa4, 0xbd, 0xec, 0xa9, 0x13, 0xbe, 0xef, 0xa6, 0x7a, 0xbd,
  0xf6, 0x73, 0x66, 0xbd, 0x21, 0xa4, 0x82, 0xbe, 0x7f, 0x50, 0x8b, 0x3e,
  0x1b, 0x8b, 0x41, 0x3d, 0x15, 0x2c, 0x15, 0xbe, 0xec, 0x96, 0x02, 0xbd,
  0x68, 0x44, 0xbb, 0x3d, 0x5d, 0x13, 0x35, 0xbe, 0x32, 0xb0, 0x12, 0xbe,
  0x0a, 0x6c, 0x90, 0xbe, 0x05, 0x92, 0x56, 0xbd, 0x29, 0x1c, 0x4b, 0x3e,
  0x07, 0x16, 0x0a, 0xbe, 0xec, 0x37, 0xed, 0xbd, 0x2a, 0xc4, 0x40, 0x3e,
  0x2b, 0x78, 0x52, 0x3d, 0xb8, 0xb6, 0x84, 0x3e, 0x88, 0x63, 0x73, 0xbe,
  0xa9, 0x7d, 0xa0, 0xbd, 0xa9, 0x44, 0x8a, 0xbc, 0xc2, 0x17, 0x22, 0x3e,
  0x48, 0x81, 0xcf, 0x3d, 0xc3, 0x62, 0xf4, 0x3c, 0x27, 0xfb, 0xb3, 0x3b,
  0x29, 0xc7, 0x6b, 0x3e, 0xd1, 0x88, 0x26, 0xbd, 0x7f, 0x40, 0x26, 0x3e,
  0x3d, 0x21, 0xc8, 0x3c, 0x64, 0x9e, 0x34, 0xbe, 0xb1, 0xd3, 0x45, 0x3d,
  0x3a, 0xfe, 0x85, 0xbe, 0x08, 0x52, 0xf8, 0x3d, 0xb6, 0x5a, 0x21, 0x3e,
  0xb5, 0xc8, 0xa8, 0x3e, 0x02, 0x90, 0x22, 0x3e, 0x2e, 0x6e, 0x1a, 0xbe,
  0x09, 0x76, 0xb9, 0x3c, 0x2b, 0x92, 0x09, 0x3e, 0xd9, 0x51, 0xf7, 0xbd,
  0xc1, 0x83, 0x22, 0x3e, 0x9c, 0xe8, 0x5a, 0xbe, 0x03, 0x3c, 0x39, 0x3e,
  0x26, 0x43, 0x8b, 0x3c, 0xe0, 0x4c, 0x82, 0x3e, 0xba, 0xdf, 0x27, 0x3e,
  0x8a, 0x23, 0x83, 0xbd, 0xa0, 0x03, 0x40, 0x3e, 0x2e, 0x8f, 0xc5, 0x3d,
  0x77, 0xdf, 0x19, 0xbe, 0xec, 0xeb, 0xe7, 0x3d, 0xe4, 0x79, 0x85, 0x3e,
  0x1a, 0x04, 0x56, 0x3d, 0x8f, 0xc7, 0x5e, 0x3e, 0x03, 0xc8, 0x8f, 0xbd,
  0xf1, 0xb6, 0xd9, 0x3a, 0xb1, 0xb7, 0x4b, 0x3e, 0xb1, 0x5b, 0x30, 0xbe,
  0xd8, 0x56, 0x6d, 0xbc, 0xd8, 0xee, 0x0d, 0x3e, 0x74, 0xbf, 0x3c, 0x3e,
  0xdf, 0x2b, 0xdd, 0x3d, 0xe6, 0xfe, 0x07, 0xbe, 0xe5, 0x7e, 0x77, 0x3c,
  0xfe, 0x38, 0x2a, 0x3e, 0x6f, 0x92, 0xc3, 0xbd, 0x38, 0x05, 0xe9, 0x3d,
  0x5b, 0x69, 0xaa, 0x3d, 0xb4, 0x77, 0x18, 0x3e, 0x86, 0x5d, 0xe7, 0xbc,
  0xb4, 0x92, 0x47, 0xbe, 0x7b, 0xfe, 0x17, 0xbd, 0x5b, 0xb2, 0x45, 0x3d,
  0xf5, 0xdc, 0x55, 0x3e, 0x48, 0x54, 0x44, 0x3e, 0x20, 0x81, 0x66, 0xbe,
  0x5b, 0x91, 0x1e, 0x3d, 0x8e, 0xb5, 0x90, 0x3e, 0x3d, 0x75, 0x1e, 0x3d,
  0x05, 0x67, 0xf9, 0x3d, 0x86, 0x70, 0x42, 0x3e, 0xf8, 0xba, 0x7a, 0xbe,
  0xbd, 0x18, 0x63, 0xbe, 0x08, 0x14, 0xec, 0xbd, 0x3b, 0xe1, 0x0e, 0x3e,
  0x47, 0x68, 0x83, 0x3e, 0x6e, 0x69, 0x72, 0xbd, 0xe5, 0x40, 0x0c, 0x3e,
  0x44, 0x6e, 0xdf, 0xbd, 0xd3, 0x8a, 0x15, 0x3e, 0x22, 0xd7, 0x99, 0x3e,
  0xe2, 0xad, 0x9c, 0x3d, 0xfc, 0x2e, 0x68, 0x3e, 0x4c, 0xff, 0x4c, 0xbd,
  0x84, 0xc5, 0x00, 0x3e, 0x16, 0xa9, 0xfc, 0xbd, 0x94, 0x5c, 0x54, 0x3e,
  0xc5, 0x43, 0x2d, 0x3e, 0xb8, 0xd3, 0x27, 0xbe, 0x49, 0xde, 0xa2, 0xbe,
  0x95, 0x92, 0x43, 0xbe, 0x9d, 0x0a, 0x80, 0x3e, 0xdd, 0x83, 0x4a, 0x3d,
  0x32, 0x1f, 0xde, 0xbc, 0x04, 0xb0, 0xdd, 0xbd, 0xec, 0xd9, 0x12, 0xbd,
  0x57, 0x1a, 0x8c, 0x3e, 0x1a, 0x6b, 0x70, 0xbe, 0xaf, 0x2a, 0x11, 0xbe,
  0x93, 0x5b, 0x8e, 0xbe, 0x86, 0xd5, 0x52, 0xbe, 0x09, 0x16, 0x8f, 0x3e,
  0xa3, 0xe7, 0x83, 0x3e, 0x41, 0x8d, 0x29, 0x3e, 0xbb, 0xef, 0x0b, 0xbe,
  0x9e, 0x86, 0xbd, 0xbd, 0xb9, 0x17, 0x2e, 0x3c, 0xda, 0x81, 0x99, 0x3d,
  0xf4, 0xcb, 0x71, 0xbe, 0xdf, 0x29, 0x67, 0xbc, 0x1f, 0x8d, 0x78, 0xbe,
  0x7e, 0xd2, 0xc4, 0xba, 0x35, 0x2f, 0x90, 0x3d, 0x35, 0xe7, 0x30, 0x3e,
  0x38, 0xab, 0x67, 0x3d, 0x5f, 0xa9, 0x38, 0x3c, 0x62, 0x68, 0xe9, 0xbd,
  0xd6, 0x4f, 0x4e, 0x3e, 0x47, 0xe3, 0x21, 0xbe, 0xf8, 0xdd, 0x1e, 0x3d,
  0x0c, 0xda, 0x99, 0x3c, 0x40, 0x69, 0xba, 0xbd, 0xb0, 0x3f, 0xfe, 0xbd,
  0xfb, 0xf7, 0x98, 0x3d, 0x12, 0x82, 0xa4, 0x3d, 0x85, 0x49, 0x87, 0x3e,
  0x01, 0x2c, 0x96, 0xbe, 0x57, 0x68, 0x35, 0x3e, 0x01, 0x6b, 0x50, 0x3e,
  0xfa, 0xfa, 0x46, 0xbe, 0x7f, 0xb3, 0xc3, 0xbc, 0xda, 0x70, 0x2e, 0xbe,
  0x9a, 0xc5, 0x40, 0x3e, 0xe0, 0x78, 0x22, 0xbd, 0x41, 0x5d, 0x0c, 0xbe,
  0xa2, 0x1e, 0x88, 0x3e, 0x07, 0x7b, 0x97, 0x3e, 0x5d, 0x1f, 0xb4, 0x3d,
  0x23, 0x1a, 0xfc, 0x3d, 0x95, 0xa2, 0xc7, 0xbc, 0x63, 0xe7, 0x3c, 0x3e,
  0x6a, 0xcd, 0x1e, 0x3e, 0x38, 0x10, 0xbe, 0xbd, 0x3f, 0x2a, 0x1c, 0xbd,
  0x42, 0x3a, 0xb6, 0x3d, 0x53, 0x43, 0x70, 0x3e, 0xe2, 0x7d, 0xb4, 0x3e,
  0x28, 0x24, 0x3c, 0x3e, 0x54, 0xbc, 0x73, 0xbe, 0xed, 0x22, 0x1a, 0x3e,
  0xd1, 0x82, 0x4b, 0x3e, 0xb8, 0x8b, 0x98, 0x3e, 0x0d, 0x29, 0x85, 0x3e,
  0x6c, 0x0c, 0x90, 0x3d, 0xc5, 0x80, 0x8c, 0x3e, 0xc8, 0xf1, 0xbb, 0x3e,
  0xb3, 0x18, 0x32, 0x3e, 0x0a, 0xed, 0x05, 0x3e, 0x3d, 0xdd, 0x0d, 0xbe,
  0x99, 0xe6, 0x63, 0xbe, 0x0d, 0x43, 0x76, 0x3e, 0x77, 0x5b, 0xdd, 0xbb,
  0x1a, 0x3a, 0x3b, 0xbe, 0x0b, 0x73, 0x4c, 0x3e, 0xfc, 0xb6, 0x70, 0x3e,
  0x24, 0xa5, 0x3d, 0xbe, 0x12, 0x7a, 0xe6, 0xbc, 0x21, 0xf6, 0x87, 0x3e,
  0xdf, 0x4d, 0x4a, 0x3d, 0xab, 0x61, 0x0b, 0xbc, 0x57, 0x31, 0xa5, 0x3e,
  0x11, 0x0c, 0x9e, 0xbc, 0xcc, 0x23, 0x03, 0xbe, 0xa0, 0x69, 0xc5, 0x3e,
  0x3c, 0x8a, 0xb0, 0xbd, 0x2b, 0x14, 0x7f, 0xbe, 0x39, 0x1e, 0xb4, 0x3e,
  0x1f, 0x58, 0x57, 0xbe, 0x1a, 0x9b, 0x9e, 0x3e, 0xbe, 0x65, 0x4a, 0xbd,
  0xdb, 0x46, 0x20, 0x3e, 0xfd, 0x92, 0xac, 0x3d, 0x64, 0x47, 0x50, 0xbe,
  0xc9, 0xb4, 0x3e, 0xbe, 0xbd, 0x49, 0x3e, 0x3e, 0xa4, 0x2f, 0xcf, 0x3b,
  0x43, 0x05, 0xa9, 0x3e, 0x45, 0x21, 0xf7, 0x3e, 0x6c, 0x8e, 0xd6, 0xbc,
  0x12, 0x3b, 0xda, 0x3e, 0x49, 0x1d, 0x46, 0xbe, 0xa6, 0x9e, 0xcf, 0x3d,
  0x29, 0x1a, 0x0f, 0x3e, 0x6e, 0xdf, 0x3c, 0x3e, 0x55, 0xad, 0x89, 0x3e,
  0x9d, 0x6b, 0xd3, 0x3e, 0x51, 0x3f, 0x6c, 0x3d, 0x0f, 0xb1, 0x15, 0x3e,
  0x10, 0x00, 0x75, 0x3e, 0x22, 0xde, 0x6e, 0xbc, 0x8c, 0xe2, 0x4e, 0xbe,
  0xc6, 0x51, 0x04, 0xbe, 0xd3, 0xfa, 0x0e, 0x3e, 0x2a, 0x40, 0x9c, 0x3e,
  0x9d, 0x4f, 0x50, 0x3d, 0x7d, 0x17, 0xa6, 0x3e, 0x77, 0x04, 0x71, 0x3e,
  0xac, 0x4c, 0x27, 0xbe, 0xb7, 0xd8, 0xb0, 0x3e, 0x24, 0xb1, 0x83, 0x3e,
  0x56, 0x5d, 0xb9, 0x3e, 0x58, 0x0a, 0x16, 0xbd, 0x4d, 0x6f, 0xd1, 0xbd,
  0xdc, 0xd3, 0xb8, 0x3e, 0xaa, 0x2c, 0x82, 0x3e, 0x52, 0xa6, 0xe3, 0xbd,
  0x04, 0x5a, 0xbb, 0x3e, 0xdd, 0x90, 0xae, 0x3e, 0x25, 0x3b, 0x22, 0x3e,
  0x7e, 0x67, 0x9a, 0x3d, 0x97, 0x93, 0x95, 0x3e, 0x9a, 0xa7, 0x84, 0xbe,
  0xf0, 0xce, 0xac, 0x3b, 0x6b, 0xf0, 0x7c, 0xbe, 0xec, 0xf7, 0xa6, 0x3d,
  0xc1, 0xbe, 0x1c, 0xbe, 0x40, 0x74, 0x65, 0x3e, 0x13, 0xa4, 0xfb, 0xbd,
  0xfb, 0x44, 0x54, 0x3e, 0xa1, 0xa6, 0x93, 0x3e, 0x59, 0x34, 0x84, 0x3d,
  0xa7, 0xc6, 0xc0, 0xbd, 0xd7, 0x68, 0x6e, 0x3e, 0x5c, 0xdf, 0x84, 0xbe,
  0x58, 0x8d, 0x30, 0xbe, 0xcd, 0xe0, 0x62, 0xbe, 0x6b, 0x2e, 0x8a, 0xbe,
  0x8b, 0x63, 0x57, 0xbe, 0xe1, 0x13, 0x19, 0xbe, 0x88, 0xad, 0x89, 0xbe,
  0xd6, 0xfd, 0x77, 0x3e, 0x96, 0xec, 0x18, 0xbd, 0xed, 0xfb, 0x87, 0xbd,
  0x59, 0xd4, 0x83, 0xbd, 0xa8, 0xf5, 0x5c, 0x3e, 0xa4, 0x3a, 0x6b, 0xbc,
  0xa2, 0x33, 0x2c, 0xbe, 0x87, 0x97, 0x8a, 0x3e, 0x0b, 0x81, 0x64, 0xbe,
  0xf0, 0x26, 0xce, 0xbd, 0xa5, 0x31, 0x72, 0x3e, 0xce, 0x81, 0x64, 0xbe,
  0x70, 0x53, 0x1f, 0xbe, 0x6b, 0x51, 0xf6, 0x3d, 0x87, 0x4b, 0x51, 0x3e,
  0x6a, 0x0c, 0x92, 0x3e, 0x9b, 0xf7, 0xee, 0xbb, 0xe3, 0xa8, 0xae, 0x3d,
  0x22, 0xf3, 0x2b, 0x3e, 0x6e, 0x9d, 0x94, 0x3e, 0x38, 0x17, 0x90, 0x3e,
  0xb4, 0x87, 0x72, 0xbe, 0x79, 0xf9, 0x87, 0xbd, 0xcc, 0xda, 0x7b, 0xbe,
  0xda, 0x78, 0x85, 0x3e, 0xfc, 0x35, 0x47, 0x3e, 0xd0, 0xd2, 0xa4, 0x3d,
  0x01, 0x3f, 0x1e, 0x3e, 0x1b, 0x6c, 0x7a, 0xbe, 0x92, 0xe5, 0x0d, 0x3e,
  0x65, 0x64, 0xc6, 0xbd, 0xec, 0x9b, 0xa9, 0x3d, 0x23, 0x2f, 0x30, 0x3e,
  0xc2, 0x6c, 0x24, 0xbe, 0xf4, 0x64, 0x3e, 0xbd, 0x72, 0xca, 0x9d, 0xbd,
  0xe8, 0xbf, 0x8c, 0xbd, 0xd6, 0x06, 0x22, 0x3d, 0xa1, 0xff, 0x7b, 0x3d,
  0x61, 0xfc, 0xd9, 0x3d, 0x1a, 0xc4, 0x6e, 0xbd, 0xf3, 0x3b, 0x37, 0x3e,
  0x45, 0xe7, 0x85, 0xbe, 0x96, 0x9e, 0xeb, 0x3d, 0x46, 0xc1, 0x82, 0xbe,
  0x6c, 0x27, 0xba, 0xbd, 0xed, 0x11, 0x2b, 0x3e, 0x90, 0x78, 0xdf, 0xbd,
  0x66, 0xa6, 0x7c, 0xbd, 0xcc, 0xaf, 0x4b, 0x3e, 0x83, 0x1d, 0x3d, 0xbd,
  0xdb, 0xa8, 0x8b, 0x3e, 0xb8, 0x96, 0xaf, 0x3d, 0x73, 0x7b, 0x70, 0xbd,
  0xb5, 0x2a, 0x5e, 0x3e, 0x3b, 0x15, 0xb1, 0xbd, 0x9c, 0xd4, 0x32, 0x3d,
  0x33, 0x4c, 0x29, 0xbe, 0x5f, 0x7d, 0x79, 0xbe, 0x80, 0x4b, 0x2a, 0xbe,
  0xc6, 0x78, 0x96, 0x3d, 0xa4, 0x7d, 0x8b, 0x3c, 0x82, 0x30, 0xd9, 0xbd,
  0xb3, 0x9f, 0x81, 0x3e, 0x3d, 0x0a, 0x85, 0xbe, 0xb8, 0x8a, 0x13, 0x3e,
  0xc9, 0x9a, 0x77, 0xbe, 0x78, 0xff, 0x6f, 0xbe, 0x8f, 0x81, 0x82, 0xbe,
  0xc0, 0xb3, 0xc2, 0x3d, 0xca, 0x6f, 0x0d, 0x3e, 0x6d, 0x81, 0x8a, 0x3e,
  0xa0, 0x2e, 0xca, 0x3d, 0x99, 0xa5, 0xa7, 0x3d, 0xc1, 0xd1, 0x15, 0xbd,
  0x08, 0x9e, 0x63, 0xbe, 0xa3, 0x02, 0x72, 0xbe, 0xf3, 0x59, 0x19, 0x3e,
  0x4e, 0x23, 0x10, 0xbe, 0x0e, 0x8b, 0x07, 0x3e, 0xda, 0xe8, 0x50, 0x3e,
  0xdb, 0x94, 0x66, 0x3e, 0x27, 0x6e, 0xcc, 0xbb, 0x68, 0x82, 0x6f, 0x3e,
  0x73, 0x02, 0x97, 0x3d, 0x5e, 0x42, 0x5f, 0xbe, 0x56, 0xbd, 0x08, 0xbc,
  0x40, 0x38, 0x0c, 0x3e, 0x4a, 0xc6, 0x83, 0x3d, 0x49, 0x51, 0x38, 0xbe,
  0xa2, 0xc6, 0x0a, 0xbd, 0x89, 0x50, 0x76, 0xbe, 0x1b, 0x38, 0x84, 0xbe,
  0xfb, 0xd8, 0xc0, 0xbc, 0x27, 0x10, 0xa7, 0x3d, 0x7e, 0x42, 0x18, 0x3e,
  0x67, 0xa7, 0x0e, 0x3d, 0x7f, 0x8e, 0x70, 0x3e, 0xd1, 0xdd, 0x87, 0x3e,
  0x89, 0xe8, 0x17, 0x3e, 0xe5, 0xc0, 0x39, 0xbe, 0xee, 0x68, 0xcd, 0xbc,
  0x81, 0x25, 0x9a, 0x3e, 0xc8, 0xa8, 0x90, 0x3e, 0xc6, 0xa3, 0x30, 0x3d,
  0xec, 0x75, 0x64, 0x3e, 0xe3, 0x6a, 0x8e, 0x3e, 0xbc, 0x6b, 0xd0, 0xbd,
  0x0b, 0xd4, 0x06, 0x3e, 0xe1, 0xf6, 0xa7, 0xbc, 0xe2, 0xe6, 0x9d, 0x3b,
  0xb2, 0x06, 0x7f, 0xbe, 0x0a, 0x05, 0x44, 0xbd, 0x2c, 0xb0, 0x96, 0x3d,
  0x2c, 0x57, 0x87, 0x3c, 0x32, 0x04, 0xab, 0x3e, 0x4e, 0x78, 0x19, 0xbe,
  0x5d, 0x54, 0x94, 0x3e, 0xe9, 0xb6, 0x75, 0x3d, 0xa3, 0x1a, 0xf8, 0xbc,
  0xe9, 0x95, 0xf6, 0x3d, 0xd1, 0x14, 0x09, 0x3c, 0x5c, 0x29, 0x52, 0x3e,
  0x54, 0x21, 0x36, 0x3e, 0xc6, 0x55, 0x94, 0x3e, 0xd3, 0x4d, 0x5f, 0xbe,
  0x7c, 0xe1, 0xe5, 0x3d, 0xae, 0xdd, 0xef, 0x3d, 0xb7, 0xb5, 0x2e, 0xbe,
  0xad, 0xaf, 0x71, 0xbe, 0xc7, 0x69, 0x2c, 0xbd, 0x5e, 0xed, 0x72, 0x3e,
  0x93, 0x12, 0xdf, 0x3d, 0xb7, 0x63, 0xff, 0xbd, 0x59, 0x77, 0x6e, 0x3e,
  0x33, 0x95, 0x19, 0x3e, 0xb3, 0x20, 0x3a, 0x3a, 0x54, 0x2d, 0x7e, 0xbe,
  0x5b, 0x84, 0x85, 0x3c, 0xc0, 0x72, 0x7d, 0x3e, 0x90, 0x6d, 0xe7, 0xbc,
  0x65, 0x74, 0x83, 0xbe, 0x97, 0x56, 0x6c, 0xbe, 0x85, 0xa3, 0x8d, 0xbd,
  0x54, 0x76, 0x8b, 0x3e, 0x7f, 0x54, 0x6c, 0x3e, 0x06, 0x2b, 0x8e, 0xbb,
  0x6e, 0xea, 0x49, 0xbe, 0xca, 0x38, 0x7f, 0x3e, 0xfe, 0x93, 0x79, 0x3e,
  0x7e, 0x4b, 0x8a, 0xbe, 0x7c, 0xbe, 0x8d, 0xbe, 0xdd, 0x92, 0x2d, 0xbe,
  0x96, 0x14, 0x4e, 0xbc, 0xd8, 0xf7, 0x09, 0xbe, 0x97, 0x3b, 0xdd, 0x3c,
  0x95, 0x15, 0x96, 0x3e, 0x8d, 0x3a, 0x51, 0x3e, 0x68, 0x76, 0x72, 0x3c,
  0xc5, 0x8e, 0xfa, 0x3c, 0xac, 0x20, 0x23, 0xbe, 0x11, 0x69, 0xdf, 0xbd,
  0x4a, 0x4d, 0x6c, 0x3e, 0xfe, 0x7c, 0xa9, 0x3d, 0xec, 0x42, 0x0d, 0xbe,
  0x9f, 0xdd, 0xd6, 0x3d, 0xd9, 0x9c, 0x50, 0x3d, 0xf4, 0x65, 0x86, 0xbe,
  0xf5, 0x6c, 0xae, 0xbd, 0xdd, 0x55, 0x88, 0x3d, 0x35, 0x8d, 0x61, 0x3e,
  0x97, 0xc3, 0x22, 0x3e, 0xe9, 0x84, 0x7a, 0xbc, 0x8f, 0x2a, 0x02, 0x3d,
  0xe9, 0x5f, 0x69, 0xbe, 0xa7, 0x54, 0x9c, 0x3d, 0x2d, 0x7e, 0x57, 0x3d,
  0x75, 0x2c, 0xf6, 0xbd, 0x80, 0xeb, 0x10, 0xbc, 0x84, 0x6a, 0xcb, 0x3d,
  0x39, 0x8a, 0x24, 0x3e, 0xcc, 0x53, 0x0a, 0xbe, 0x6c, 0xfa, 0xfe, 0xbd,
  0x22, 0x9d, 0x20, 0xbe, 0x40, 0x50, 0xb3, 0x3c, 0x8d, 0xe0, 0x86, 0x3e,
  0x70, 0x4a, 0x55, 0xbe, 0x8c, 0xb6, 0x33, 0x3e, 0x46, 0x56, 0x5b, 0xbe,
  0xc7, 0x31, 0x70, 0xbd, 0xe4, 0x2e, 0x5e, 0x3e, 0x00, 0x16, 0x22, 0xbe,
  0x74, 0x4f, 0x07, 0x3e, 0x3e, 0x9f, 0x71, 0xbe, 0xac, 0xd5, 0xf6, 0x3d,
  0x7e, 0x67, 0x15, 0xbe, 0xb9, 0x75, 0x85, 0x3e, 0x33, 0xfe, 0x08, 0xbe,
  0x7d, 0xb4, 0x09, 0xbe, 0x47, 0x39, 0x45, 0x3e, 0x31, 0xd6, 0x83, 0x3d,
  0x06, 0x49, 0xbd, 0x3c, 0x32, 0xec, 0x47, 0x3e, 0x0a, 0xaf, 0x59, 0xbd,
  0xb2, 0x04, 0x24, 0x3e, 0xbe, 0x6f, 0x55, 0x3e, 0xf9, 0xee, 0x74, 0xbe,
  0xc5, 0x11, 0x1f, 0x3c, 0x12, 0xbb, 0x78, 0x3e, 0xe6, 0x50, 0x4d, 0xbe,
  0xee, 0x2f, 0x71, 0xbe, 0xc9, 0x93, 0xcd, 0x3c, 0x9d, 0x9b, 0x9d, 0x3d,
  0x2e, 0xda, 0xef, 0x3d, 0xf9, 0x92, 0xd9, 0xbd, 0x52, 0x66, 0x8e, 0xbe,
  0x20, 0x06, 0xcf, 0x3d, 0x8e, 0xdf, 0x45, 0x3e, 0xff, 0xb1, 0x6d, 0xbd,
  0x9c, 0x44, 0xe9, 0xba, 0x4c, 0xbe, 0x19, 0xbe, 0xa9, 0x4e, 0xbe, 0xbd,
  0xfd, 0x9d, 0x99, 0x3e, 0x26, 0xee, 0x88, 0xbe, 0x23, 0x04, 0xa0, 0x3d,
  0xfd, 0xd9, 0x0b, 0xbe, 0xfb, 0x13, 0x3e, 0xbe, 0x95, 0x69, 0x1f, 0x3e,
  0x27, 0xff, 0x3c, 0xbe, 0x19, 0x53, 0x65, 0x3e, 0x5c, 0x22, 0x2d, 0xbd,
  0xf9, 0x56, 0x50, 0x3d, 0x94, 0x3a, 0x2b, 0xbe, 0x7d, 0xa7, 0xd1, 0xbd,
  0x42, 0xfb, 0x8b, 0xbe, 0x46, 0xb7, 0x96, 0x3c, 0x6d, 0xb6, 0x8c, 0x3e,
  0xa6, 0xa6, 0x5f, 0xbe, 0x46, 0x41, 0x05, 0x3e, 0x1b, 0xc7, 0x83, 0x3d,
  0xd5, 0x6f, 0x2b, 0x3e, 0x3c, 0x94, 0x30, 0x3e, 0x05, 0x8a, 0x80, 0x3c,
  0xa2, 0x97, 0x9f, 0xbd, 0xb2, 0xb2, 0x5e, 0x3e, 0x3c, 0x73, 0x5f, 0x3d,
  0x83, 0x64, 0xb6, 0xbd, 0xd7, 0x27, 0x53, 0xbd, 0xb2, 0x52, 0x72, 0x3e,
  0x61, 0x45, 0x3c, 0x3e, 0xd4, 0x6a, 0x86, 0x3e, 0x62, 0xcb, 0x67, 0x3e,
  0x8e, 0x0c, 0x63, 0xbc, 0x44, 0x7b, 0x7c, 0xbe, 0xa2, 0x54, 0x15, 0xbe,
  0x06, 0x2a, 0x58, 0xbe, 0x67, 0x00, 0x70, 0x3e, 0x9e, 0xd6, 0x82, 0x3e,
  0xa8, 0x23, 0x29, 0x3e, 0x6d, 0xc9, 0x87, 0xbc, 0xcb, 0x6f, 0x1a, 0x3e,
  0x94, 0x04, 0xdb, 0xbd, 0x0b, 0xc4, 0x36, 0xbe, 0x1f, 0x39, 0x07, 0xbe,
  0x58, 0xb2, 0x49, 0xbc, 0x64, 0xac, 0x92, 0x3e, 0xd2, 0xce, 0x2e, 0xbe,
  0x4a, 0xdb, 0xc4, 0xbd, 0x95, 0xa2, 0x8f, 0x3c, 0xb8, 0x5a, 0x13, 0xbe,
  0x0c, 0xe4, 0x41, 0xbe, 0x7b, 0x73, 0x50, 0xbe, 0xb0, 0x31, 0x18, 0x3e,
  0xf8, 0x3b, 0x7a, 0x3e, 0x52, 0xe6, 0x6e, 0x3e, 0x7d, 0xbe, 0x0a, 0xbd,
  0x10, 0xd1, 0x49, 0xbe, 0x8b, 0x0d, 0x81, 0x3e, 0xe7, 0xc5, 0x82, 0xbd,
  0xe3, 0xc3, 0x99, 0x3e, 0x53, 0xa8, 0x8c, 0x3d, 0xc8, 0xae, 0x45, 0x3e,
  0xa8, 0x56, 0x8f, 0x3e, 0xd0, 0x31, 0x93, 0x3e, 0x32, 0xa6, 0x88, 0x3e,
  0xee, 0x16, 0x95, 0xbe, 0xf2, 0x20, 0x95, 0x3e, 0x7a, 0x01, 0x35, 0x3e,
  0x3c, 0xf2, 0x55, 0xbe, 0x10, 0x78, 0xc6, 0xbd, 0x3a, 0xc6, 0x32, 0x3e,
  0x2c, 0xbb, 0x2b, 0xbe, 0x14, 0x0c, 0xa5, 0x3d, 0x9f, 0x3e, 0x49, 0xbe,
  0xe3, 0x7b, 0x4e, 0x3e, 0xbc, 0xef, 0x4d, 0x3d, 0x99, 0xca, 0x1c, 0x3e,
  0xd5, 0x12, 0x14, 0xbe, 0x8d, 0xb4, 0x8d, 0x3e, 0x4c, 0x23, 0x60, 0x3e,
  0x84, 0xbb, 0x17, 0x3e, 0xf7, 0x9c, 0x82, 0xbe, 0xd3, 0x94, 0x61, 0x3e,
  0x77, 0x7a, 0x0a, 0xbd, 0x7c, 0x56, 0x82, 0xbe, 0x92, 0x91, 0x75, 0x3e,
  0x78, 0x25, 0x24, 0x3e, 0xbf, 0x11, 0x46, 0xbe, 0x91, 0x28, 0xd7, 0xbd,
  0x61, 0x84, 0x37, 0xbe, 0xa6, 0xab, 0x7b, 0xbc, 0xa0, 0x07, 0xbd, 0x3d,
  0xd9, 0xec, 0x11, 0x3e, 0x9f, 0x0e, 0x4f, 0xbc, 0xbf, 0x77, 0x38, 0x3e,
  0x9f, 0x43, 0xd4, 0x3d, 0x24, 0xa8, 0x05, 0xbe, 0xcc, 0xb0, 0x63, 0x3d,
  0x9e, 0xf7, 0x89, 0x3e, 0xf9, 0xdb, 0x85, 0x3e, 0x8d, 0x2f, 0x5c, 0xbe,
  0x3a, 0xfd, 0x8c, 0x3e, 0x1c, 0x1c, 0x8a, 0xbe, 0xed, 0x36, 0x3e, 0xbe,
  0x37, 0x41, 0x87, 0x3d, 0x68, 0x39, 0xeb, 0xbd, 0x5e, 0x5e, 0x3a, 0x3e,
  0x92, 0x62, 0x58, 0x3e, 0xa7, 0x94, 0x93, 0x3e, 0x66, 0x81, 0x44, 0x3d,
  0xd4, 0x1f, 0x26, 0x3d, 0x54, 0xd2, 0xf8, 0xbd, 0xa4, 0x19, 0x53, 0x3e,
  0xd3, 0xed, 0x2b, 0xbd, 0x6f, 0x55, 0x33, 0x3e, 0x85, 0xf9, 0x6e, 0x3e,
  0xf5, 0xf4, 0x6a, 0xbe, 0x7d, 0x47, 0x12, 0x3e, 0x48, 0x42, 0x84, 0xbe,
  0x70, 0x0b, 0x7f, 0x3e, 0x8f, 0xd0, 0x30, 0xbe, 0x56, 0x9a, 0x77, 0xbe,
  0x11, 0xd6, 0x13, 0x3d, 0x02, 0x3d, 0x07, 0xbe, 0x20, 0x9c, 0x28, 0x3d,
  0x61, 0x1d, 0x3f, 0xbd, 0xda, 0xbe, 0x17, 0x3d, 0xff, 0x8e, 0xb4, 0xbd,
  0xbc, 0x7a, 0x85, 0xbd, 0xb5, 0x9d, 0x58, 0x3e, 0x60, 0x2a, 0x28, 0x3e,
  0x57, 0x80, 0x69, 0x3c, 0x74, 0xb4, 0xf3, 0xbd, 0x28, 0x0f, 0x61, 0xbe,
  0xdc, 0x5c, 0x25, 0x3e, 0x89, 0x59, 0x91, 0x3e, 0x4d, 0x27, 0x90, 0xbd,
  0xbd, 0xef, 0xec, 0x3d, 0xdf, 0x9e, 0x26, 0x3e, 0x4b, 0x1d, 0x41, 0xbe,
  0xc7, 0x78, 0x8f, 0xbd, 0x5d, 0x7a, 0x3e, 0xbe, 0xd5, 0xfb, 0x87, 0xbe,
  0xc5, 0x3e, 0x4e, 0xbe, 0xbd, 0xe3, 0x5d, 0x3e, 0x51, 0x36, 0x6d, 0xbd,
  0x5c, 0xe1, 0x1d, 0xbd, 0x2b, 0xa6, 0x34, 0x3d, 0x6c, 0xf2, 0x25, 0x3e,
  0x6a, 0xdc, 0x38, 0xbe, 0x2c, 0xeb, 0xc7, 0x3d, 0x49, 0x5e, 0xc6, 0x3d,
  0x90, 0x45, 0x3b, 0xbe, 0xb6, 0x5f, 0x0c, 0xbe, 0x89, 0xc4, 0x43, 0x3d,
  0xf9, 0x90, 0x3c, 0x3d, 0xd4, 0xd1, 0x24, 0x3e, 0xf8, 0xaf, 0x2a, 0x3e,
  0xfb, 0xc6, 0x79, 0x3e, 0xfa, 0xd4, 0x17, 0x3d, 0xf4, 0xc4, 0x83, 0xbe,
  0x96, 0x0a, 0x55, 0xbd, 0xd6, 0x98, 0xa7, 0xbd, 0xc0, 0xf9, 0xad, 0x3d,
  0x21, 0x96, 0x9b, 0x3e, 0xee, 0x1f, 0x92, 0x3e, 0x99, 0xc7, 0xc9, 0xbd,
  0xf2, 0x4e, 0x73, 0xbe, 0x37, 0x88, 0x67, 0x3e, 0xaf, 0x17, 0x1e, 0x3b,
  0x54, 0xa5, 0x2a, 0xbe, 0x19, 0x11, 0x5b, 0xbe, 0x53, 0x1e, 0x25, 0xbd,
  0x6d, 0x51, 0xc5, 0xbd, 0x51, 0xc8, 0xc3, 0xbd, 0xec, 0x46, 0x04, 0x3d,
  0xcb, 0xde, 0x85, 0x3e, 0xfb, 0x30, 0x1c, 0x3e, 0xad, 0x09, 0x9d, 0x3e,
  0x03, 0xca, 0x53, 0x3e, 0xf5, 0x53, 0x80, 0xbe, 0x71, 0xb1, 0x47, 0x3e,
  0xd4, 0xb9, 0x29, 0x3e, 0x7d, 0xd7, 0x5b, 0x3d, 0x6c, 0x54, 0xf6, 0xbc,
  0x3f, 0x4e, 0x9d, 0xbc, 0x03, 0x01, 0x30, 0x3b, 0x2e, 0x5b, 0x31, 0xbe,
  0x28, 0xe3, 0x3e, 0x3e, 0xc3, 0xe2, 0x9a, 0x3e, 0xa0, 0xd7, 0x5d, 0xbe,
  0xbb, 0x6c, 0xbd, 0x3d, 0xd2, 0xb8, 0x3b, 0xbe, 0xf7, 0x44, 0x24, 0x3e,
  0xeb, 0xd0, 0x1b, 0xbe, 0x9f, 0x43, 0xe7, 0xbd, 0x0f, 0x96, 0xb1, 0x3e,
  0x1e, 0xda, 0x46, 0x3e, 0x0c, 0x2e, 0x6e, 0x3e, 0x35, 0x9a, 0x48, 0x3d,
  0x60, 0xad, 0x87, 0x3e, 0x3e, 0x04, 0x26, 0x3d, 0xfd, 0x6b, 0x2b, 0x3e,
  0x72, 0x21, 0x7a, 0x3e, 0x19, 0xa0, 0x13, 0x3e, 0xc1, 0x10, 0x53, 0x3c,
  0xe4, 0x89, 0x84, 0xbe, 0x6b, 0x6f, 0x21, 0xbe, 0x80, 0x7b, 0x03, 0x3e,
  0x06, 0xf3, 0x3f, 0x3e, 0xa0, 0xe2, 0x77, 0x3b, 0x1c, 0xcb, 0x76, 0xbe,
  0x3f, 0xe7, 0x62, 0x3e, 0xfb, 0x87, 0x14, 0xbe, 0x70, 0xfb, 0x2c, 0xbe,
  0x5e, 0xb9, 0xd8, 0x3e, 0xff, 0xfa, 0x54, 0xbe, 0xf0, 0xbd, 0x02, 0xbe,
  0x04, 0x1c, 0x42, 0x3e, 0xd5, 0x69, 0x8a, 0xbc, 0x30, 0x41, 0x48, 0x3e,
  0xe2, 0x36, 0x74, 0xbd, 0xbd, 0xcf, 0xb5, 0xbd, 0x78, 0x1f, 0xe6, 0xbd,
  0x60, 0xd7, 0x11, 0x3d, 0x5f, 0x20, 0xa3, 0x3a, 0xd8, 0x44, 0x66, 0xbd,
  0x62, 0x4d, 0x4e, 0x3d, 0xe6, 0xa1, 0x90, 0x3c, 0x0c, 0x31, 0xd3, 0x3d,
  0xd1, 0xa3, 0x1b, 0xbe, 0xc3, 0xe6, 0x87, 0xbe, 0xd3, 0x00, 0xee, 0xbd,
  0x18, 0xf1, 0x4d, 0xbe, 0x76, 0xb7, 0x8d, 0x3d, 0x62, 0x88, 0x2c, 0x3d,
  0xaf, 0xa9, 0x8f, 0x3e, 0x28, 0x77, 0x19, 0x3e, 0x08, 0x13, 0xa1, 0x3d,
  0x6e, 0xb2, 0x01, 0x3e, 0x03, 0x14, 0x7f, 0xbe, 0x6c, 0x1e, 0x99, 0xbe,
  0x63, 0x6f, 0x46, 0x3e, 0x74, 0x71, 0x8b, 0x3d, 0x76, 0xfa, 0x64, 0xbe,
  0x9e, 0xf8, 0x29, 0x3e, 0x4b, 0x1b, 0x06, 0x3e, 0xbe, 0x88, 0x51, 0x3e,
  0x81, 0x23, 0x04, 0xbe, 0x1d, 0x80, 0x19, 0xbd, 0x66, 0xca, 0x87, 0x3c,
  0xb4, 0xa0, 0x94, 0xbd, 0x5b, 0xc2, 0x77, 0x3e, 0x63, 0x4c, 0x0a, 0xbe,
  0xc6, 0xee, 0x0c, 0xbe, 0x19, 0x6c, 0xcc, 0xbd, 0x9e, 0xc1, 0x94, 0xbe,
  0xf3, 0x1e, 0xb7, 0xbd, 0xa8, 0xa9, 0x0a, 0xbe, 0x01, 0xbd, 0x6c, 0x3e,
  0x2e, 0x9a, 0x8d, 0xbe, 0xa3, 0x8e, 0xb9, 0xbd, 0x47, 0x86, 0x5d, 0xbe,
  0x39, 0x03, 0x1c, 0xbe, 0x11, 0x40, 0x9c, 0xbd, 0x8e, 0x14, 0x7a, 0xbe,
  0xe7, 0x3f, 0xba, 0xbd, 0xef, 0xc9, 0x74, 0x3e, 0xed, 0x4d, 0x62, 0x3e,
  0x74, 0xd5, 0xf8, 0xbb, 0x8e, 0x97, 0xa3, 0x3c, 0x62, 0x18, 0x5c, 0x3e,
  0x1d, 0x50, 0x8e, 0x3e, 0x23, 0xe4, 0x82, 0xbe, 0x67, 0x51, 0x0e, 0x3e,
  0x5a, 0x3f, 0x1d, 0xbe, 0xb1, 0xca, 0x7d, 0x3e, 0xa5, 0x62, 0x1f, 0xbe,
  0xc8, 0x0c, 0x2a, 0xbe, 0xa5, 0xc7, 0x0b, 0xbd, 0xdd, 0x9a, 0xf7, 0xbd,
  0x03, 0x13, 0x79, 0x3e, 0xd8, 0x26, 0x8b, 0xbd, 0x6f, 0x07, 0x86, 0x3e,
  0x53, 0x70, 0xed, 0xbd, 0xbb, 0x40, 0x53, 0x3e, 0xec, 0x1c, 0x42, 0x3e,
  0x05, 0x37, 0x2c, 0x3e, 0xf5, 0x52, 0x2b, 0xbe, 0x6c, 0xc7, 0xe8, 0x3b,
  0x62, 0x0b, 0x01, 0x3d, 0xf3, 0x5b, 0xd1, 0x3d, 0x90, 0x14, 0xb3, 0x3d,
  0xce, 0x58, 0x65, 0xbe, 0x1d, 0x92, 0xdf, 0x3d, 0x00, 0xcc, 0xad, 0xbd,
  0x6f, 0x69, 0x39, 0xbe, 0xf6, 0x34, 0x12, 0xbe, 0x03, 0xa8, 0x8a, 0x3e,
  0x8f, 0xdc, 0x69, 0xbe, 0x4d, 0xa1, 0x6e, 0x3e, 0xca, 0x86, 0x7f, 0xbe,
  0x25, 0xef, 0xf2, 0x3c, 0x5a, 0xb6, 0xf6, 0x3d, 0x26, 0xe9, 0xd4, 0x3c,
  0xa3, 0xb2, 0xa6, 0xbd, 0xe6, 0x8a, 0x11, 0xbe, 0x7f, 0x7e, 0xc7, 0x3c,
  0x02, 0xaf, 0x71, 0xbd, 0xaf, 0xf2, 0x53, 0x3d, 0xd2, 0x83, 0x4b, 0xbe,
  0xdd, 0xae, 0xa8, 0x3c, 0x20, 0xee, 0x81, 0x3e, 0x5a, 0x5b, 0x49, 0xbe,
  0xe4, 0x1a, 0x92, 0xbe, 0xbe, 0x7e, 0x82, 0xbe, 0x66, 0xff, 0x21, 0xbd,
  0xa9, 0x58, 0x77, 0xbe, 0x25, 0x92, 0x88, 0x3e, 0xab, 0x46, 0xa6, 0xbd,
  0xfb, 0x7f, 0xe2, 0x3d, 0xc2, 0x4c, 0x3c, 0x3e, 0xee, 0xa8, 0xda, 0xbc,
  0x0d, 0xa4, 0xaa, 0xbd, 0x81, 0x4e, 0x47, 0xbe, 0x34, 0x05, 0xb1, 0x3b,
  0x5a, 0x6f, 0x84, 0xbe, 0x2f, 0xc7, 0x79, 0xbe, 0x94, 0xfd, 0x68, 0x3e,
  0x12, 0xe1, 0x4d, 0xbc, 0xa9, 0xbc, 0x07, 0x3d, 0x84, 0x40, 0x5c, 0x3e,
  0x27, 0x9d, 0xc5, 0x3d, 0xe0, 0xb7, 0xbb, 0x3d, 0xeb, 0xcf, 0x29, 0x3e,
  0x4e, 0x6c, 0xa2, 0xbe, 0x6d, 0x5f, 0x3c, 0xbe, 0x27, 0x0f, 0xdd, 0xbd,
  0xe7, 0xaa, 0x09, 0x3e, 0x4b, 0x85, 0x5e, 0x3e, 0x92, 0x3c, 0xc3, 0x3e,
  0x9a, 0xa4, 0xd4, 0xbd, 0x1e, 0x5c, 0x4a, 0x3e, 0xe7, 0xbb, 0xa8, 0x3d,
  0xb5, 0x57, 0x14, 0xbd, 0x38, 0x5a, 0x19, 0xbe, 0x04, 0x28, 0x38, 0xbe,
  0x51, 0x73, 0xb9, 0x3d, 0x82, 0xb1, 0x56, 0x3d, 0x56, 0x08, 0x5a, 0xbe,
  0xd6, 0x1c, 0x89, 0x3c, 0x30, 0x50, 0xa4, 0xbe, 0x8c, 0x11, 0x16, 0x3e,
  0xe8, 0xb0, 0x10, 0x3e, 0xe2, 0x85, 0x5a, 0x3e, 0xef, 0xcd, 0x88, 0x3e,
  0x76, 0xc8, 0xb4, 0x3d, 0xc9, 0xd3, 0x92, 0xbe, 0x90, 0xe8, 0x96, 0x3d,
  0x95, 0x84, 0x69, 0x3e, 0x0d, 0x6a, 0xb5, 0xbb, 0x5a, 0x24, 0xc0, 0x3d,
  0x7b, 0x99, 0xfc, 0x3d, 0x71, 0x9a, 0xa1, 0x3d, 0xb3, 0xbf, 0xee, 0xbc,
  0x6a, 0x41, 0x8a, 0x3d, 0xc1, 0xa9, 0xbe, 0x3e, 0x67, 0x84, 0x45, 0x3e,
  0x6a, 0x4e, 0x47, 0xbe, 0x39, 0x1d, 0x54, 0xbd, 0x68, 0x8b, 0x2f, 0xbe,
  0xf5, 0xd0, 0x96, 0x3e, 0x41, 0xcf, 0xdc, 0x3d, 0x18, 0x51, 0xcc, 0x3d,
